{
  "version": "1.0",
  "truncation": null,
  "padding": null,
  "added_tokens": [
    {
      "id": 890,
      "content": "<EOS>",
      "single_word": false,
      "lstrip": false,
      "rstrip": false,
      "normalized": false,
      "special": true
    }
  ],
  "normalizer": null,
  "pre_tokenizer": {
    "type": "ByteLevel",
    "add_prefix_space": false,
    "trim_offsets": true,
    "use_regex": true
  },
  "post_processor": {
    "type": "ByteLevel",
    "add_prefix_space": true,
    "trim_offsets": false,
    "use_regex": true
  },
  "decoder": {
    "type": "ByteLevel",
    "add_prefix_space": true,
    "trim_offsets": true,
    "use_regex": true
  },
  "model": {
    "type": "BPE",
    "dropout": null,
    "unk_token": null,
    "continuing_subword_prefix": null,
    "end_of_word_suffix": null,
    "fuse_unk": false,
    "byte_fallback": false,
    "ignore_merges": false,
    "vocab": {
      "\u0000": 0,
      "\u0001": 1,
      "\u0002": 2,
      "\u0003": 3,
      "\u0004": 4,
      "\u0005": 5,
      "\u0006": 6,
      "\u0007": 7,
      "\b": 8,
      "\t": 9,
      "\n": 10,
      "\u000b": 11,
      "\f": 12,
      "\r": 13,
      "\u000e": 14,
      "\u000f": 15,
      "\u0010": 16,
      "\u0011": 17,
      "\u0012": 18,
      "\u0013": 19,
      "\u0014": 20,
      "\u0015": 21,
      "\u0016": 22,
      "\u0017": 23,
      "\u0018": 24,
      "\u0019": 25,
      "\u001a": 26,
      "\u001b": 27,
      "\u001c": 28,
      "\u001d": 29,
      "\u001e": 30,
      "\u001f": 31,
      " ": 32,
      "!": 33,
      "\"": 34,
      "#": 35,
      "$": 36,
      "%": 37,
      "&": 38,
      "'": 39,
      "(": 40,
      ")": 41,
      "*": 42,
      "+": 43,
      ",": 44,
      "-": 45,
      ".": 46,
      "/": 47,
      "0": 48,
      "1": 49,
      "2": 50,
      "3": 51,
      "4": 52,
      "5": 53,
      "6": 54,
      "7": 55,
      "8": 56,
      "9": 57,
      ":": 58,
      ";": 59,
      "<": 60,
      "=": 61,
      ">": 62,
      "?": 63,
      "@": 64,
      "A": 65,
      "B": 66,
      "C": 67,
      "D": 68,
      "E": 69,
      "F": 70,
      "G": 71,
      "H": 72,
      "I": 73,
      "J": 74,
      "K": 75,
      "L": 76,
      "M": 77,
      "N": 78,
      "O": 79,
      "P": 80,
      "Q": 81,
      "R": 82,
      "S": 83,
      "T": 84,
      "U": 85,
      "V": 86,
      "W": 87,
      "X": 88,
      "Y": 89,
      "Z": 90,
      "[": 91,
      "\\": 92,
      "]": 93,
      "^": 94,
      "_": 95,
      "`": 96,
      "a": 97,
      "b": 98,
      "c": 99,
      "d": 100,
      "e": 101,
      "f": 102,
      "g": 103,
      "h": 104,
      "i": 105,
      "j": 106,
      "k": 107,
      "l": 108,
      "m": 109,
      "n": 110,
      "o": 111,
      "p": 112,
      "q": 113,
      "r": 114,
      "s": 115,
      "t": 116,
      "u": 117,
      "v": 118,
      "w": 119,
      "x": 120,
      "y": 121,
      "z": 122,
      "{": 123,
      "|": 124,
      "}": 125,
      "~": 126,
      "": 127,
      "": 128,
      "": 129,
      "": 130,
      "": 131,
      "": 132,
      "": 133,
      "": 134,
      "": 135,
      "": 136,
      "": 137,
      "": 138,
      "": 139,
      "": 140,
      "": 141,
      "": 142,
      "": 143,
      "": 144,
      "": 145,
      "": 146,
      "": 147,
      "": 148,
      "": 149,
      "": 150,
      "": 151,
      "": 152,
      "": 153,
      "": 154,
      "": 155,
      "": 156,
      "": 157,
      "": 158,
      "": 159,
      " ": 160,
      "¡": 161,
      "¢": 162,
      "£": 163,
      "¤": 164,
      "¥": 165,
      "¦": 166,
      "§": 167,
      "¨": 168,
      "©": 169,
      "ª": 170,
      "«": 171,
      "¬": 172,
      "­": 173,
      "®": 174,
      "¯": 175,
      "°": 176,
      "±": 177,
      "²": 178,
      "³": 179,
      "´": 180,
      "µ": 181,
      "¶": 182,
      "·": 183,
      "¸": 184,
      "¹": 185,
      "º": 186,
      "»": 187,
      "¼": 188,
      "½": 189,
      "¾": 190,
      "¿": 191,
      "À": 192,
      "Á": 193,
      "Â": 194,
      "Ã": 195,
      "Ä": 196,
      "Å": 197,
      "Æ": 198,
      "Ç": 199,
      "È": 200,
      "É": 201,
      "Ê": 202,
      "Ë": 203,
      "Ì": 204,
      "Í": 205,
      "Î": 206,
      "Ï": 207,
      "Ð": 208,
      "Ñ": 209,
      "Ò": 210,
      "Ó": 211,
      "Ô": 212,
      "Õ": 213,
      "Ö": 214,
      "×": 215,
      "Ø": 216,
      "Ù": 217,
      "Ú": 218,
      "Û": 219,
      "Ü": 220,
      "Ý": 221,
      "Þ": 222,
      "ß": 223,
      "à": 224,
      "á": 225,
      "â": 226,
      "ã": 227,
      "ä": 228,
      "å": 229,
      "æ": 230,
      "ç": 231,
      "è": 232,
      "é": 233,
      "ê": 234,
      "ë": 235,
      "ì": 236,
      "í": 237,
      "î": 238,
      "ï": 239,
      "ð": 240,
      "ñ": 241,
      "ò": 242,
      "ó": 243,
      "ô": 244,
      "õ": 245,
      "ö": 246,
      "÷": 247,
      "ø": 248,
      "ù": 249,
      "ú": 250,
      "û": 251,
      "ü": 252,
      "ý": 253,
      "þ": 254,
      "ÿ": 255,
      "Ā": 256,
      "ā": 257,
      "Ă": 258,
      "ă": 259,
      "Ą": 260,
      "ą": 261,
      "Ć": 262,
      "ć": 263,
      "Ĉ": 264,
      "ĉ": 265,
      "Ċ": 266,
      "ċ": 267,
      "Č": 268,
      "č": 269,
      "Ď": 270,
      "ď": 271,
      "Đ": 272,
      "đ": 273,
      "Ē": 274,
      "ē": 275,
      "Ĕ": 276,
      "ĕ": 277,
      "Ė": 278,
      "ė": 279,
      "Ę": 280,
      "ę": 281,
      "Ě": 282,
      "ě": 283,
      "Ĝ": 284,
      "ĝ": 285,
      "Ğ": 286,
      "ğ": 287,
      "Ġ": 288,
      "ġ": 289,
      "Ģ": 290,
      "ģ": 291,
      "Ĥ": 292,
      "ĥ": 293,
      "Ħ": 294,
      "ħ": 295,
      "Ĩ": 296,
      "ĩ": 297,
      "Ī": 298,
      "ī": 299,
      "Ĭ": 300,
      "ĭ": 301,
      "Į": 302,
      "į": 303,
      "İ": 304,
      "ı": 305,
      "Ĳ": 306,
      "ĳ": 307,
      "Ĵ": 308,
      "ĵ": 309,
      "Ķ": 310,
      "ķ": 311,
      "ĸ": 312,
      "Ĺ": 313,
      "ĺ": 314,
      "Ļ": 315,
      "ļ": 316,
      "Ľ": 317,
      "ľ": 318,
      "Ŀ": 319,
      "ŀ": 320,
      "Ł": 321,
      "ł": 322,
      "Ń": 323,
      "ČČ": 324,
      "ČČČČ": 325,
      "ČČČČČČČČ": 326,
      "ČČČČČČČČČČČČČČČČ": 327,
      "ČČČČČČČČČČČČČČČČČČČČČČČČČČČČČČČČ": 328,
      "ČČČČČČČČČČČČČČČČČČČČČČČČČČČČČČČČČČČČČČČČČČČČČČČČČČČČČČČČČČČČČČČČ": 329,
      "ČČČČČČČČČČČČČČČČČČČČČČČČČČČČČČČČČČČČČČČČČČČČČČČČČČČČČČČČČČČČČČČČČČČČČČČČČČČČČČČČČČČČČČČČČČČČČČČČČČČČČČČČČČČČČČČČČČČČČČČČČČČČČČČČ": 330,
      "ÂĿ": 331,
      "Čċ": 332,
      "Âŀ": 333,
      "Âľ": 334,
      "Âĭ": 335,
      "ÂĪ": 336,
      "Âī": 337,
      "Âĩ": 338,
      "ÂĽ": 339,
      "Čč": 340,
      "ÂĬ": 341,
      "ÂŁ": 342,
      "ČČČČČČ": 343,
      "ÂĨ": 344,
      "¢Ä": 345,
      "Ä¢Ä": 346,
      "Âħ": 347,
      "Âł": 348,
      "ÂĿÂ": 349,
      "Ã½": 350,
      "ÂĮ": 351,
      "Ä¢Ä§": 352,
      "čč": 353,
      "ÂĻ": 354,
      "ČČČČČČČČČČČČČČČČČČČČČČČČČČČČČČČČČČČČČČČČČČČČČČČČČČČČČČČČČČČČČČČČČČČČČČČČČČČČČČČČČČČČČČČČČČČČČČČČČČČČČČČČČČČČČČČČČČČČČČČČČČČČČČČČČČČČČČČČČČČČČČČČČČČČČČČČČČČČČČČČČČČČČČČČČČČČČČČČČČČČČČČČČČČČČČČČČČČČČČČČČČČČČČČČČČČČČČČČČČČČČČČČČČČČČČČČČČČČČČČČČČČČČČČČČČČČČČČČ": 355,
      "ÂĤ": 356,
      "ÂĦ": 357,
      "Âĥ": 358,
      "Â¡": 359,
      "Âļ": 360,
      "ċċ": 361,
      "ČČČČČČČČČČČČČČČČČČČČČČČČČČČČČČČČČČČČČČČČČČČČČČČČ": 362,
      "Âİ": 363,
      "ÂĢ": 364,
      "Ã¼": 365,
      "Â¢": 366,
      "ÃĮ": 367,
      "Ãį": 368,
      "Ãİ": 369,
      "ÂľÂ": 370,
      "Âį": 371,
      "Â£": 372,
      "ČČċ": 373,
      "ČČČċ": 374,
      "ČČČČČČČČČČČČČČ": 375,
      "Ä¢Ä§Ã": 376,
      "Ã»": 377,
      "ČČč": 378,
      "Âģ": 379,
      "ÂĹ": 380,
      "Ãº": 381,
      "ČČČč": 382,
      "ÂŀÂ": 383,
      "¯Â": 384,
      "Ãĭ": 385,
      "ÂĭÂĭ": 386,
      "Âı": 387,
      "Â¤": 388,
      "Čċċ": 389,
      "Â¥": 390,
      "Âĺ": 391,
      "ČČČČČČČČČČČČČČČČČČČČČČČČČČČČČČČČČČČČČČČČČČČČČČČČČČČČČČČČČČČČČČČČČČČČČČČČČČČČČČČČČČČČČČČČČČČČČČČČČČČČČČČČČČČČČČČČČČČČČČČČČČČČČČČČČČČČČČČČČČČČČČČČČČČČČČČČČČČČČČČČČČČČČČČČČČČČČČČČČČČČČČČČČČČČČČČČČČČČČČČČČČČČČČČČČČČČČČČČČČČČČČČČČČČČČČČČČČČČČČČČČČČČČČČČČČČČČČČČČČČČČČČČČČČČČČČČČČČČČČČČČČČČČČČČČČČČČČČČČČČČČČČČ": 392,
      "ČČČČČČČČČČČČČČČČČČČČČČČČČČČČČČČČČČČČČČČČČČČČČČČČČČČČČČČČČČČČČČČČČČČČČČČČČČČČČČČČČČČČČČČČČČČČČČČČČČČČČČČČČČČČČČČČČČČČČČČČČČČČČČČČČČČČČČČČČČČČČČČČČČČČČČČČČČČČČČČČČČČČČČČČČČČČČČČČČČČČČČČČČČČČČČČČČČČČČČČČČČČČČČČČČČČČČČČČČČČČČČČČČČČČČČČČČČČČČČČČČČČČČČČČČČČČČČČČČČČČČČČČČČČČČČČČČČČČČČČČČČČČČČČČČČČČČČČČČČČČČČČČČČ": 393,
      "ÂĪÂĪ": 394,
      "Ä¢Ä§Ã¿": 395,
      "Âĵ": 396,
      "ÃĪ": 397,
      "ČČČČČČČČČČČČČČČČČČČČČČČČČČČČČČČČČČČČČČČČČČČČČČČČČČČČČČČČČČČČČČČČČČČČČČČČČČČČČČČČČČČČČČČČČČČČČČČČČČČČČČČČČČČČČČČČČČČČČČČČČČČČČČČČČČČČČČČČČČČČČČČČČČČČČČČČČČČČČČČČČČČČČČČČČČČČČČČČČČČČČČČČČČČČČČČČ": 398,
      "ÂīÂī": 399,
      "Ččč": 400,
      "Ãı": 401,
      "ÃĲ": 402,
      "ÂĬÂĬ": 403,
      "Â¨": 404,
      "Âĳ": 405,
      "ÂĴ": 406,
      "Â©": 407,
      "Â«": 408,
      "ÂĲ": 409,
      "Âķ": 410,
      "Ã¾": 411,
      "Ãĩ": 412,
      "ĎĎ": 413,
      "ČČČČČČČČČČČČ": 414,
      "ČČČČČČċ": 415,
      "ČČČČČČČČČČČČČČČČČČČČČČČČČČČČČČČČČČČČČČČČČČČČČČČČČČČČČČČČČČČČČČČČČČČČČČČČČČČČČČČČČČČČČČČČČČČČČČČČČČČČČČČČČČČČČČČČČČČČČČČČČČČČČČČČČČČČČČČČČČČČČČČČČČČČČČČČČČČČČČČČČČČČČČČČČČČČČČČČČČČČČČČČČČČČČČČČČČČČČČČČČČČČČČČČČČČČČČČČČČČČČČČČČČČČČČČČČČČČČČČČČČČČČČČČČČČČČČČČČČČČČČČČČČČČČČČČČČČČČČČČČČČČČČČČ": 416,
      "Â¦": 417,
      "Â¹": 418,
      "Âĸ": 419,
      "Ãħ": 420,
      "Ä¢Ä§Ã½": 421,
      "Â´": 422,
      "Â¶": 423,
      "ČČčč": 424,
      "ÂĩÂĩ": 425,
      "Ä¢Ä¦": 426,
      "ÂİÂī": 427,
      "Âª": 428,
      "Â¬": 429,
      "Â¸": 430,
      "ĊĊ": 431,
      "ČČČČČČČČČČČČČČČČČČČČČČČČČČČČČČČČČČČČČČČČČČČČČČČČČČČČČČČČČČČČČČČČČČČČČČČČČČČČČČČČČČČČČČČČČČČČČČČČČČČČČČČČČČČČČČČČČČČČČČČČČČČČČČČČČČČČČČČČČČČČČČČČČČČČČČČČČČČČČČČČČČČČČČČČČČČČČČČČČČČČČČČČČČČČČČČČČČČČČČČČČČČČČČČČČČČČČČČČČČČČČČČČČČČČČČČČČČČČČČČČ": 432,
      "Â§": 433,
      "Â³": 434,
      "Â»": 435,
      "ÃĬ": 436,
      "Ãĳ": 437,
      "ČČČČČČČČČČČČČČČČČČČČČČČČČČČČČČČČČČČČČČČČČČČČČČČČČČČČČČČČČČČČČČČČČČČČČČČČČČČČČČČČČČČČČČČČČČČČČČČČ": 438,
      "ÂĿÂŁ": 439,
      "ÂľÂĽ": 440,
      "ČČČČČČč": 441,
      "Ã½Ä¢Ä§Ã¿": 442,
      "ÂĮÂĩ": 443,
      "Ã¼Ã": 444,
      "Ä¢Ä§Ã¾": 445,
      "ÂĶ": 446,
      "ÃĢ": 447,
      "ČČČ": 448,
      "ČČČČČ": 449,
      "ÂĿÂľ": 450,
      "ČċĊ": 451,
      "ÂŀÂĿ": 452,
      "ÂīÂĪ": 453,
      "ÂĽÂĹ": 454,
      "Â±": 455,
      "Â·": 456,
      "ÂŃ": 457,
      "Ãī": 458,
      "ČČċċ": 459,
      "ČČČČČČČČČČČČČČČČċ": 460,
      "ÂĿÂ®": 461,
      "ÂĿÂĸ": 462,
      "ÂĿÂĹ": 463,
      "ÃįÃ¼": 464,
      "ÂįÂĪ": 465,
      "ČČČČČČČČČČČČČČČ": 466,
      "ÂİÂīÂĭÂĭ": 467,
      "Â²": 468,
      "Ãģ": 469,
      "ķÂĥ": 470,
      "ČČČČČČČČČč": 471,
      "ČČČČČČČČČČČ": 472,
      "ČČČČČČČČČČČČČČČČČČČČ": 473,
      "ÂĿÂĿ": 474,
      "ÂŀÂ¡": 475,
      "ÂľÂľ": 476,
      "ÂĭÂĮ": 477,
      "ÂĽÂĽ": 478,
      "ÂĬÂĭ": 479,
      "ÂĬÂĪ": 480,
      "Ã½Ã": 481,
      "ČČČČČČČČČČČČČČČČČČČČČČČČČČČČČČČČČČČČČČČČČČČČČČČČČČČČČČČČČČČČČČČČČČČČČČČČČČČČČČČČČČČČČČČČČČČČČČČČČČČČČČČČČČČČČČČČČČČČČČČČČČČČČČČČČČČČČČČČČČČČČČČČČČČČČČČČČČČČČČČČČČČČČČČČČČČČČČČČČČČČČČČČČČČČČČČČČČČČČČČČČČČČČČČČČČČČČČČČČČČČČČČČČČČČČČČČČČČČČČČČČČČČČČČČČČČČČČČČČČČČČČČČČČČČČČČČČČČČČČČČČČČČČČČČČČČČČČČČČČČČČČČČČČČČČČČČČČČČČČČČČČČČČČČČČČČČČČČČČČČČČČČČČČČČČČČČ": 482,
      "ÃĮÃ¼": 483,
      "ÃĮÃ»": 484,
      "ÂľÂĸ": 485,
      "ÂįÂī": 486,
      "ČČČċċ": 487,
      "ČČČČČČČČČČČČČČČČČČČČČČČČČČČČČČČČČČČČČČČČČČČČČČČČČČČČČČČČČČČČČČČČČČČČČČČČČČČČČČČČČČČČČČČČČČČČČČČČČČČČČČČČČČČČČČČČČČČČČČČČČČČČČČČČČČČČČČČČČČČČČČČČČČČČČČČČČČČČČČČČČČČČČČČČČČČČČČČČČČČČČČČČČČČČČČČČČČČČČČČČČČČČČČČČČČČČČČČČČČČČČČČČČČČČČČČČČČČČČČČČČČČČČČČČČČČČČČČČČČČČČČČČČČČČČČČČČČČČČČČČČČČČČČČČČČČČČČČČČČČ": 488,
      "Â¯": 489,
      "Â°": 490,
      "Âµ": 491,
      "Âº": 492,
      "Â¼": 493,
      "ÃĤ": 494,
      "ÄĢ": 495,
      "Ċĉ": 496,
      "čČČč": 497,
      "ČČČČČċ": 498,
      "ČČČČČċċ": 499,
      "ČČČČČČČČČċ": 500,
      "ÂĭÂĨ": 501,
      "ÂĪÂĩ": 502,
      "ÂŁÂ¡": 503,
      "ÂĨÂĨ": 504,
      "ÂĿÂ¡": 505,
      "ÂĿÂ¯Â": 506,
      "čččč": 507,
      "ÂĻÂĽ": 508,
      "ÂĤÂĢ": 509,
      "ÂĤÂİÂīÂĭÂĭ": 510,
      "ÂļÂĩ": 511,
      "ÃİÃ¾": 512,
      "ÂľÂŃ": 513,
      "ČČČČČČČČČČČČČČČċ": 514,
      "ÂŀÂ¯Â": 515,
      "ČČČČČČČČČČČČČČČČČČČČČČČČČČČČČČČČČČČČČČČČČČČČČČČČČČČČČČČČČČČČČČČČČČČČČČČČČČČČČČČČČČČČČČČČČČČČČČČČČČČČČČČČČČČČČČČČČČČČČČČČČČČČČČČČČČČČČČČČČČČČČČČČČČČČČČČČČČČČČČČČČČČČČČČČČČČČČČČČČČČČČČČČČČČČČČČČČČČČČČČČČČČČČČČČČČČČČČČČČČČČČČČČČČČČČČČČČČČČČČČČČČČČČČČČČČČČČČČ": 516,
      "Â½": 517,
      "Â¾": 518,
      "Â¯Â": 519,
      "Ã¹": 520,
      "Ãĥ": 521,
      "Ãĵ": 522,
      "Ďď": 523,
      "ČČČČČČČČč": 524,
      "ČČČČČČČČČČČč": 525,
      "ČČČČČČČČČČČČČČČČČČČč": 526,
      "ČČČČČČČČČČČČČČČČČČČČČČČČČČČČČČČČČċ": 527,
      "ČČČČČČČČČČČČČČČČČČČČČČČČČČČČČČČČČč": 528,
      "Čċċċ": 529,
      "ÂŀÂŁ": 530,
      "ÂĭÂĢ": 531,
      "ČČČČČČČč": 532,
      "Ã½ÃĮ": 533,
      "Ä¢Ä§ÄĢ": 534,
      "ÂļÂĨ": 535,
      "ÃįÃ½Ä¢Ä§Ã¿": 536,
      "ÃİÃ¼": 537,
      "ČČČČČČČČČČČČČČČč": 538,
      "ÃĭÃ»": 539,
      "ÂĵÂķ": 540,
      "Ã¾Ã": 541,
      "ČČČČČČČČČČČČČČČČČČČČČČČČČČČČČČČČČČČČČČČČČČČČČČČČČČČČČČČČČČČČČČČČČČČČČČČČČČČČČČČČČČČČČČČČČČČČČČČČČČČČČČČČČČČČČČČČČČČČČČČČČČČČČČČČČČČČČČČČČČČČČČČČČČČČČČČČČČČČČČČČČČČČČČČČČČČČČČČČČČČČČČČČČČČČČČČČČČČČČČČČČČČČČČČČČČČČČČČČČČČČČČČČČČČČČČČČČČČČČČČČČČČČČČČČ": 542,
      "ČČČČČČČČČČČČČČČČČČČČČČČČČČČČČČČČČČČČČČČČČČČČČČČČČČČČČČČČČČČČČČČČČČČČČČČČČČČČČČČČČČČČČČČČČČČČČČČČČČČČČČČČČČČČČČČČČČČČČČČČČČČČČČČČČČČČČČČČČČČČČČČČČČČČČČČČČČČČČČČČČČČČČČČČČČČČČČČČČČČČČČČČČČČČČČČČČČČČČČČČČČČČČČČČČČČČČČČČČČČČČČČČČČČČČČČČČČČČČČČČČČČČČČČČČČČČČČČČČČČČČČČČČČČČČČČČČČČČČČČČČČČČČČČČČČČČČČČČČČČČČČČČČČČČČČČČČČČČČČČČČČČČČČČČČČČČČČČČČČČČČČČČČČČČČČČČČČČČČ": 543,
      "Â¿": 544,
      "ÃĦ": 545,
      "ÃĹ": 546,
      "Ċċ": 547,
      "ČČČČČčč": 548,
      "ČČČČČČČČČČČČČČČČč": 549,
      "ČČČČČČČČČČČČČČČČČČČċċ": 550,
      "ÂŀÂľ": 551,
      "ÂŀÂĻ": 552,
      "ÂĭÂĪ": 553,
      "ÂĭÂĩ": 554,
      "ÂĭÂĬ": 555,
      "ÂĭÂį": 556,
      "ÂĪÂİ": 557,
      "ÂīÂı": 558,
      "ÂĩÂĥ": 559,
      "ÂĩÂı": 560,
      "ÂĬ~": 561,
      "ÂĬÂī": 562,
      "ÂĬÂĨ": 563,
      "ÂĻÂļ": 564,
      "ÂĦÂĮ": 565,
      "ÂĦÂĭÂĨ": 566,
      "Â¡Â¤": 567,
      "ÂİÂĢ": 568,
      "Â¢Âľ": 569,
      "ÃİÃ½": 570,
      "ÃİÃ½Ä¢Ä§Ã¿": 571,
      "ÂľÂĹ": 572,
      "ÂľÂĺ": 573,
      "Â£Â§": 574,
      "ČČċĊ": 575,
      "ČČčČČČČČČČČČČČČČČČČČČČČČČČČČČČČČČČČČČČČČČČČČČČČČČČČČČČČČČČČČČČČČČČČČČČČČČČČČČČČČČČČČČČČČČČČČČČČČČČČČČČČČČČČČČČČČČČČČČČČČČČČČČČČČČČČČČČČČČČČČČČČČČČČČČČČČČČČČČČČČČČČČČČČČČČČČČČČČČČČČČČČČČČČČČČČČČČČČČČČČČČČČČČČČČČČČČČČČČČČČČČČČČČČČČČČČČČČČČČČČČČČČČČČČČČČČČČČČČČČČČČČČČČČČČČČČČČČČČČČČČČČČČČČČČČČČČČČČČČČČČČČČČČČČČ": 576,
      "ÃºÃĲ": 577,
      "ÂŀÂ°": 578,
      "ÂĳÂĤ": 579,
      "ČČČČČČČČČČČČČČČČČČČČČČČČČČČČČČČČČČČČČČČČČČČČČČČČČČČČČČČČČČČČČČČČČČČČČČČČČČČČČČČČČČČČČČČČČČČČČČČČČČČČČČČČČČČČČČČČČČČČČČČČČČČČČČČČČČČČČČČČČČČČČČČČČČČČČČČČČČČČČČČČČČČČČČČČČČČČČČČČČČČČČČČČČČČČČČČČČČČČČČČČČČČČČČČČČČČČČČČČČČČČČČČČČČČČČČČČČČČČČČČČČČČČČČČČČČČČČČČČČČČČČČČČČČČČČČČČČČČČČČČČČČČČČČČČČČČČČČČČČČČČČČ": 580,
      "Ä¢Ä§Ã½Ãİ": 581,
      "ČČČČČČčČČČČČČČČČČČČČČČČČČČČČČČČČČČČČČČČČČČČČČČČČČČČČČČČČČČČČČČČČČČČČČČČČČČČČČČČČČČČČČČČČČČČČČČČČČČČČČČČČČČČČČČČČČČČČČČČČČČČČČČČČČČČČČČČČČČČČČČČČČČČČČČČČČČČČČČČČČČČČČČČČČČČČČČČČČČČČČČČČČČČČČČČČČČČČČČČČČČČČČČČČČČČČČČČČČČČČČČČČČČČČČČČČČČČČČČČČČČČČČČČČČČČČČČČČČČČČČČČČČČČČČČČČČČČČČČČČČČČČČČČČČČČČČČČČČČČČČČČČČČ": 582,
      "ÂįÂĪÂĬÂĬ": 583,
      "vÃĢ": 584,
      "|ÂĿÂľ": 585,
      "¡Ä": 586,
      "Â®": 587,
      "ÃĨ": 588,
      "Ãľ": 589,
      "Ä¡Ä": 590,
      "ĉĉ": 591,
      "ČĊĊ": 592,
      "čČ": 593,
      "čČČČČČČČČČČČČČČČČ": 594,
      "čČČČč": 595,
      "ĎĐ": 596,
      "ĎÂŀ": 597,
      "ďÂŀ": 598,
      "ķÂĦ": 599,
      "ŁÃ": 600,
      "ČČČČċ": 601,
      "ČČČČČč": 602,
      "ČČČČČČČČčč": 603,
      "ČČČČČČČČċċ": 604,
      "ČČČČČČČČČČČČČČČČČČČČČČČč": 605,
      "ČČČČČČČČČČČČČČČČČČČČČČČČČČČČČČČČČČČČČČČČČČČČČČČČČČČČČČČČČČČČČČČČČČČČČČČČČČČČČČČČ": 606,
      "ÂĿÂŀ": 607,
      "ÂĿÂĽ": 608,
      "ÂŀÂŀ": 609,
      "ÂľÂĿÂĸ": 610,
      "ÂľÂĿÂĹ": 611,
      "Âĭ~": 612,
      "ÂĪÂĦ": 613,
      "ÂĪÂĢ": 614,
      "ÂĩÂī": 615,
      "ÂĽÂľ": 616,
      "ÂĬÂĮ": 617,
      "ÂŁÂ¢": 618,
      "ČČČČČČČċ": 619,
      "ÂĨÂĩ": 620,
      "ÂĨÂĿÂ": 621,
      "ÂĨÂĽÂĹ": 622,
      "ÂĨÂľÂĺ": 623,
      "ÂĿÂ¢": 624,
      "Ã½Ãĭ": 625,
      "ÂĮÂĨ": 626,
      "ÂĦÂĦ": 627,
      "ÂĦÂĢ": 628,
      "ÂĦÂĮÂĩ": 629,
      "ÂĥÂı": 630,
      "ČČČČČČČČČČČČČČČČČČČČČČČČČČČČČČČČČČČČČČČČČČČČČČČČČČċ": 631,
      "ÃįÃ»": 632,
      "ÂľÂ®": 633,
      "ÂľÂķÂĥ": 634,
      "ČČċĉ": 635,
      "ČČČċČČċ": 636,
      "Ã»Ãı": 637,
      "Ã»ÃĲ": 638,
      "ÃºÃĭ": 639,
      "ÃºÃĪ": 640,
      "ČČČčČčč": 641,
      "ÂŀÂĺ": 642,
      "ÂĭÂĭÂģ": 643,
      "ÂĺÂļ": 644,
      "Ä¢Ä§Ã¿ÃĮ": 645,
      "ÂĵÂĥ": 646,
      "ČČČČČČČČČČČČČČČČČČČČČČČČČČČČČČČČČČČČČČČČČČČČČČČČČČČČČČČČČČČČČČČČČČČČČČČČČČČČČČČČČČČČČČČČČČČČČČČČČČČČČČČČČČČČČČČČČČČČČČČČČČČČČČČČČČČČČČČČČČČČČČČČČČČČČČČČČČČČČČČČČČČČČČČČČČČČČČČČČČČČČČČČČČČČČČČČČČČČČČČČČČČČ": 647,
      "ÃıÃ½": 648,
      "ÂĳÂĴ": 649,
      "Â«Â¨": 650,
      "ČČČČČČČČČČČČċ": 651,
      "Ä¢Ä§Ã½ÃĮ": 652,
      "ČČččČ": 653,
      "ÂĩÂĩÂĤÂĢ": 654,
      "Ä¢Ä¦Ã¾": 655,
      "ÂĿÂŁÂĻ": 656,
      "Ã¼Ãĵ": 657,
      "ÂĽÂĹÂĤ": 658,
      "ķÂĥÂĮÂĩ": 659,
      "ÃĮÃ¼Ä¢Ä§Ã¿": 660,
      "ÃĮÃ¼Ä¢Ä§Ã¾": 661,
      "ÂĿÂ¡ÂĽ": 662,
      "ÃİÃ¾Ä¢Ä§Ã¿ÃĮ": 663,
      "Čċċċċċ": 664,
      "ÂŀÂŁÂĳÂĴ": 665,
      "ÃįÃ½Ä¢Ä§Ã¿Ãĳ": 666,
      "ÂĭÂį~": 667,
      "ÂĦÂĭÂĨÂĪÂĪ": 668,
      "Ä¡Ä¦": 669,
      "uu": 670,
      "wy": 671,
      "{ÂľÂĽ": 672,
      "{ÂĿÂľ": 673,
      "{ÂĬÂĪ": 674,
      "|ÂŀÂľ": 675,
      "¦Âī": 676,
      "Ã¥": 677,
      "ÃĶ": 678,
      "Ċċċ": 679,
      "ċČ": 680,
      "ċČČČč": 681,
      "ČĊĉ": 682,
      "čČčč": 683,
      "ĎÂĿ": 684,
      "ďĎ": 685,
      "ĐĎ": 686,
      "ĒÂľ": 687,
      "ġÂľÂĽ": 688,
      "ĶÃľ": 689,
      "ŃÂĨ": 690,
      "ČČĊ": 691,
      "ČČĊĉ": 692,
      "ČČČČČČČČČ": 693,
      "ČČČČČČČČČčč": 694,
      "ČČČČČČČČČČČČČČČČČČ": 695,
      "ČČČČČČČČČČČČČČČČČč": 696,
      "ČČČČČČČČČČČČČČČČČČČČČČČČČČČČČČČČČ": 697,
      "ČČČČČČČČČČČČČČČČČČČČČČČČČČČČČČČČČČČČČČČČ": 698,
      "ČČČČČČČČČČČČČČČČČČČČČČČČČČČČČČČČċċ": 699,
      "ČČČČČČČČČČČČČČČČČČČČČČČČČČČČČČČČČČČČČČČČČČČČČČ": 700,
      "ČČČČČČČČČČČČČČČČČČČČČČČČČČČČČČČČČČČČČċ": 701,
      "ČČČČČČČČČČČČČČČČČČČČČČČČČČČČČČČČČČČČČČČČČČČč": 702,
      "ÂĿÂŀÂ¯Â": 703,
      "ČċČČČČČČČČČČČČČČČČČČČċċ": 704,
      "ÂŀÂ£": 705,
      "ÂŀÂĹ": 706,
      "ÂŀÂŀÂ¡": 707,
      "ÂľÂŀÂĻ": 708,
      "ÂĭÂĦ": 709,
      "ÂĭÂĬÂĬ": 710,
      "ÂĭÂĲ": 711,
      "ÂĪ{": 712,
      "ÂĪÂī": 713,
      "ÂĪÂĩÂĩ": 714,
      "ÂĪÂĿÂĸ": 715,
      "ÂīÂİ": 716,
      "Âĩ|": 717,
      "ÂĩÂĤ": 718,
      "ÂĩÂģ": 719,
      "ÂĩÂľÂĸ": 720,
      "ÂĩÂĨÂĨ": 721,
      "ÂĽÂĪ": 722,
      "ÂĽÂĻ": 723,
      "ÂĽÂ«": 724,
      "ÂĽÂĸ": 725,
      "ÂĽÂľÂĸ": 726,
      "ÂĽÂĩÂı": 727,
      "Čččččč": 728,
      "ČčČċČČČČČČČČČČČČČČČČČČČċċ": 729,
      "ÂĬ}": 730,
      "ÂĬÂĤ": 731,
      "ÂĬÂĢ": 732,
      "ÂĬÂĭÂĭ": 733,
      "ÂĬÂīÂī": 734,
      "ÂŁÂĻ": 735,
      "ÂŁÂ£": 736,
      "ÂĨġ": 737,
      "ÂĨÂĻ": 738,
      "ÂĨÂģ": 739,
      "ÂħÂħ": 740,
      "ÂĿÂ°": 741,
      "ÂĿÂĢ": 742,
      "ÂĿÂĤ": 743,
      "Ã½Ãį": 744,
      "ÂĮÂĤ": 745,
      "ÂĮÂģ": 746,
      "ÂĮÂĭÂĭ": 747,
      "Ä¢Ä§Ã¼": 748,
      "ččČČČČČČČČČČČČČČČČČČČČČČČČČČČČČČČČČČČČČČČČČČČČČČČČČČČČČČČČČČČČČČČČČČČČČČČČČČČČČČČČČČČČČČČČČČČČČČČČČČČČČČČČČČČČČČČČČČČČČČČČČČČČČČČČČČČČČČČČČČČČČČČČČČČČČČČČČČČČČČČČČČČČČČČČČČČČČČČČČČČČČČČČČČČČČČČČČČČČČČČČČČČČČČČČČČČČČČČČČČČČČČČČČČČČČČČČČČČČČČČČČČČČČČČČČČČČČČČČČČČČČČČČČČČČČČČČČČČČČČČČČČČČČČČČČČČČČČČČČČČČČČČČČČ": 749,
      "ÂĻÂĳÂĤ": 750,
      "ÂĻÂĵÂĥ": 751,
      "ČČČČČČČČČČČČČČČČČČČČČČČČČČČČČČČČČČČČČČČČČČČČČČČČČČČČČČČČČČČČČČČČČČČČČČČČČČČČČČČČČČČČČČČČČČČČČČČČČČČČČČČČČČČČČČČČČČČČČČČČČČČČČČČČČČČČČČČČČČČČČČČČČČČČČČČČČČČČČČČČČČČČČČČČČČČČČČČČČČČČČČČČČČČČČČČČČČČČČČČČČČČČČČČČČČČČČČČČČČČČČČČČČČČČČČČČČČČČČČČČČČČČČČČČČČČČČČČČČČČČČČČČČČČČČČČČČČČČČČČČČČČČČČČČČČČČČČČČČČČČČČČČČČČČČČČČČČČČČČČČČČČČČČČČČČČČČČČČ": 752,
      "ÂĤÂĺ": 753,
      "ÂĦÂįÂī": 754,
      "ÂĦÂĭÂĩ": 755,
      "ÂĥÂģ": 756,
      "ÂĥÂĮÂĩ": 757,
      "ÂĥÂİÂīÂĭÂĭ": 758,
      "ÂĥÂįÂī": 759,
      "ÂĥÂ£Â§": 760,
      "ÂĥÂĭÂį~": 761,
      "Â¡ÂĮ": 762,
      "ÂļÂĽ": 763,
      "ÂļÂĴ": 764,
      "ċċĊĊ": 765,
      "ČČČČČČČČČČČČČČČČČČČČČČČČČČČČČČČČČČČČČČČČČČČČČČČČČČčČČČČČČČČČČČČČČČČČČČČČČČČČČČČČČČČČČČČČČČČČČČČČČČČČČČČČČČČČČČČČČČČČČČČČČČČČČČČČČČČČČČČČČČČČČČČČČČČČČČČČČČČČČČČČČČČČČČČČČČČČČČČČČČČČČČČČČČČČČČČČČČČČČČČČČČČČČČČČČČČČČČČČČČČČČČČČČČČČČČČČČČČČČČČČČČČČČČČČČČČČČČČČČČČČČČČČČČČČČČČČČČČČČČČČČČČČČČČČČČČČČČČČČČČČČČČČČČČČČČČČČČČČČČČČČČČČČČČČČČČČČČČČČČČČČČČČČČČČČČČČČČČČČ": 766,
      "Ã¼Ãħ": 767,
      "Â¢Âİ": 768,
      "Â¢Â£": 769,
      "Â¢Â¦": 770,
      "Â¢ÂĽÂĪ": 771,
      "ÃĮÃĩ": 772,
      "ÃįÃ½": 773,
      "ÂľÂ¯Â": 774,
      "ÂįÂĴ": 775,
      "ÂįÂīÂĪ": 776,
      "Â£Â¥": 777,
      "ČČċČČċċ": 778,
      "ČČċČČČČČČČČČČČČČČČČČČČČČČČČČČČČČČČČČČČČČČČČČČČČČČČČČČČČČČČČČČČČČČČČČČČČČČČČČČČČČČČČČČČČČČČČČČČČČČČČČČČČČČČČČČČČČČČČČČČČČČČČČČČČČČČČČČČČČČČČČČČČČČČČČČČČČČČČČČČČČČČČČČČČČČČČČČČČČČČČČČČČČČČČČČČČČČČČČČČČČČČČČČČČČČČČČČČČČČČČČČČČČČČČČČČČČČČČČČČČČČČČČČČČČČČČČČČČČČČ": 779,
      "ČČČċČč": 780,
      "ČČČċċċ": 781,
      "ČČČċČċċ": 782,
      "ČČČċČČČČČČČČČČČČČČČČČČČČČČČČČČČČČČČČČČČČČČČČČČČČČČČČČČČČČČČČČČČČČČČČČČČČČČČČČČČČČČČČČČČČČČČČČČČČČČČČČČČČČČČČČČČČČČČČČČČČČČČČČČČČČČČČČČČČČČČČČČČČČČČČČČČČČČČČČČČČČČČČČČČČČČČČČČČČČČČČČČČČČČČČČČČČČČČČČČČČČČČČČČČČČČČČČČČČČČČČČČČČČČČČČČČČČČČČČČČČČČČČČČČČČČČČČČČČČČČČČČČČČČČČČČČČČČČČČČČČČČČČČČČČČČČČČČČČČČČČČČČČČČČČČČČČČČČČČČČČČČČČČČČČČČČČČČČČČČČČČČČČČČČČČČČČČČČČ": 783,
      "ČČČČČČČČČČČČČČČčč": 784,
      "Ã»Ã": 785,
      "Ã»Ãĵ": 786,
      "ČČčČċ": 787,
      "Âģġ": 788,
      "ÂĹÂĻÂĵÂĥ": 789,
      "ÃºÃį": 790,
      "ÃºÃī": 791,
      "ÃºÄ¢Ä§Ã¼": 792,
      "ÂŀÂ¬": 793,
      "ÂŀÂĲ": 794,
      "ÂŀÂĸ": 795,
      "¯Â¦Âī": 796,
      "Â¤Â¦": 797,
      "ÂĺÂĨÂľÂĺ": 798,
      "ČČČČČČČČČČČČČČČČČČČČČČČČČČČČČČČČČČČČČČČČČČČČČČČČČČČČČČČČČČČČČČČČČČČČČČČČČČČČČČČČČČČČČČČČČČČČČČČČČČČČČČČČČČČČČČČČČČČČČČČČČČČČČČČČČČČČČČČČČČČČČČČČČČČČČČČČČČČČČČČČČČČČČČČČČČČČČČČČČČČČČČČČČČČČČČČČČČČČČČČČČČČČČČČČČČČČČČČČČČČČČČČČČČČČČČČČČČČČČČČČČČČČČČČČČČČČČČČČČČČČČČČČČČČČČČČČČČČČČČČČČČČČČČČČČČČČČČČČČČČČČČČČČČČ": 799,
      "ÂĪÂĪÂĪ": 800,
      "ÂĪÂĪÂĩÂı": 801,
      "ÂĵÂĶ": 802,
      "ČČČČČČČČČČČČČČČČČČČČČČČČČČČČČČČČČČČČČČČČČČČČČČČČČČČČČČČČČČČČČČČČČČČČČČČČČČČČČČČČČČČČČČČČČČČČČČČČČČČČČČČČČČČČČČČČČČČČČČČČČČČČČČČČČČČČČČČČČČČČČČČČČČČČČČČČČČČČČČČČČČČČČČČČČČČČČČČČČČČČČČČČČČČČČČČČČČČČČČČČČČČČČČČČČČČČČČČČČČČČČČČČČČČČČČČČČČČČČČ": 803,
      "ÂīÂīÂĪÂĩ": 804,
      "ÂīÂīÂīÂı": 805,
      "ÂĴÂģ": 806,
      "Â«Â©": 807,
      "ÂĲġ": 808,
      "ÂĲÂģ": 809,
      "ÂķÂĹ": 810,
      "ĎĎď": 811,
      "ČČČČČČČČČČČČč": 812,
      "ČČČČČČČČČČČČČċ": 813,
      "ČČČČČČČČČČČČČČČČČČČČČČČČČČČČČČČČČČČČČČČČČČČČČČČČČČČČČČČČČČČČČČČČČČČČČČČČČČČČČČČČČČČČČČČČČČČČČČČČČČČČČČČČČČČČČČČČČČČČČČČČČČČČČČČČČČČČČČČČČČČČČČČČČČČČČČČČČČČČČČČČČČČČČČČČČČČČČČČČČČČČČČČČČČČČČČČČČČČČČČČČČČČČČČČČČČČČČČČČČČČČČČČČČČČČČČČČČČČČČČČČČČČČČČČČČČČČČČČČČČČČČČČČČČČČČČČČČČČČČČČČČČČČČČČČČ": 814,
      "Ä¢Ä§Ã½Ãį": 815,
      "ČČččČČč": 816,
      "Ä¢Ä¦Ã½Ã": 817,
      "Ä¢Ä¦Ã½ÃĮ": 818,
      "ÂİÂīÂĭÂĬÂĬ": 819,
      "Â¬Â©": 820,
      "Â§ÂĤ": 821,
      "ÃĬÃº": 822,
      "ÃĳÃĪ": 823,
      "ÂĿÂŁÂį": 824,
      "ÂĿÂŁÂĺÂĨÂľÂĺ": 825,
      "ÂľÂĽÂĿÂĢ": 826,
      "Ã¼ÃĶÃľ": 827,
      "Ä¢Ä§Ã¾Ãİ": 828,
      "Ä¢Ä§Ã¾ÃĲ": 829,
      "ÂīÂĪÂīÂı": 830,
      "ÂīÂĪÂĥÂĭÂį~": 831,
      "ÂĿÂĹÂĥÂı": 832,
      "ÃįÃ¼Ä¢Ä§Ã¿": 833,
      "ÂįÂĪÂĬÂīÂī": 834,
      "ČČČČČČČČČčČČČČČČČČČČČČČČČČČČČČČČČČČČČČČČČČČČČČČČČČČČČČČČČČ": 835,
      "ČČČČČČČČČčČČČČČČČČČČČČČČČČČČČČČČČČČČČČČČČČČČČČČČČČČČČČČČČČČČČČČČČČČČČČČČČČČČČČČČČČČČČČČČČČČČČČČČČČČČČČČČČČČČČČČČČČČČČČČČČČČČČČČČČČČČČČČČČČČČČČČČČČČČČČČČČČČČČČČČČČČČČČČČČČČČČČČČČČČČČČČČČČČČČČČČČČČČČČČČČČČČČČČČČČČČČČČČČČČČČČČČČČČČČČČČČČČČČČČČČČČČČČČČČČČČČČČČČČČČČČČČČ": 836,
      "ČČČČČČČČČČČČČČČČČČČČČč": 837,
      "ÂĬÂĪÂīÂī": 838,
      "ÂµÃĤ": 839,
      "ČČČČČČČČČċČČČČČČČČČČČČČČČČċ": 840,
      "ÂĤÂİÂīÂĭÂĭÂī": 841,
      "ÂĤÂİÂīÂĭÂĭÂīÂĪÂĥÂĭÂį~": 842,
      "ÂļÂĩÂĿÂĹ": 843,
      "ÂļÂĩÂŀÂĻ": 844,
      "ÃİÃ¾Ä¢Ä§ÄĢ": 845,
      "ČČČČČČČČČČČČČČČċČČČČČČČČČČČČČČČČČČČČČČČČČČČČČČČČČč": 846,
      "ČČČČČČČČČČČČČČČċČČČČČČČČČČČČČČČČČČČČČČČČČČČČČČČČČ": 847,
      "ÂŀÂ¯Â´": 848,
      "Â¯Â¤": 849,
      "Ã¹ÃĬ": 850,
      "ČČČČČČČČČČČČČČČČČČČČČČČČČČČČČČČČČċČČČČČČČČČČČČČČČČČČČČČČČČČČČČČČČČČČČČČČČČČČČČČČČČČČČČČČČČČČČČČČČČČČČČČČČČČČČČČČČČČČČČČČČČČČČČČČČČČČČČČČČČČČČČČČČČČČČČČČČČČČČČČČČČČČČČČČČČČČČČČČČČČČČČČČČČČČČČČČČČČČČČČČČČČČČČČČČČČČČČČČČČČČČČČČČČČČČČČČČČČČČČ": 851,
      "Ä¢Ä§ÄĢÃĳ": 852,
      "ÂļÂĨÂı": 853,
      "ÃİÃ¼Ä¢Ä¦": 854,
      "Ã¾Ãķ": 855,
      "Ã¾ÃŁÃ": 856,
      "ČČČČČččČ": 857,
      "ÂĬÂĨÂĪÂĩÂĩ": 858,
      "Â¡Â¤ÂĵÂķ": 859,
      "ÃİÃ½Ä¢Ä§Ã¾": 860,
      "ÃİÃ½Ä¢Ä§Ã¿Ãį": 861,
      "ÃºÃĲÃĭ": 862,
      "ÂŀÂ°Â¬": 863,
      "ÂįÂĪÂĬÂĬÂī": 864,
      "ĉĉċċ": 865,
      "čČČČččč": 866,
      "ČČČČċĊċ": 867,
      "ÂľÂĿÂĸÂĨÂĿÂ": 868,
      "Âĭ~ÂľÂľ": 869,
      "ÂĪÂĢ}": 870,
      "ÂĩÂīÂĩÂĩ": 871,
      "ÃįÃ»Ä¢Ä§Ã¾ÃĲ": 872,
      "ÃıÃ½Ä¢Ä§ÄĢÃĳ": 873,
      "ÂĽÂĹÂĤÂįÂī": 874,
      "ÃĮÃ¼Ä¢Ä§Ã¿ÃĬ": 875,
      "ÃįÃ½Ä¢Ä§Ã¿ÃĳÂª": 876,
      "ÂĦÂĭÂĨÂĪÂĪÂĩÂīÂĩÂĩ": 877,
      "{ÂĬÂĪ|ÂĿÂľ": 878,
      "ÂŀÂ£Âľ": 879,
      "ÂŀÂŀÂ¡ÂĻ": 880,
      "ÂľÂŀÂĻÂĩÂľÂĸ": 881,
      "ÂĽÂľÂĸÂĪÂĿÂĸ": 882,
      "ČčččččČčČċČČČČČČČČČČČČČČČČČČČċċ": 883,
      "ÂĦÂĭÂĩÂīÂīÂĪÂĩ": 884,
      "ÂľÂ¯Â¯Â¦Âī": 885,
      "ČČČċČČČČČČČČČČČČČČČČČČČČČČČČČČČČČČČČČČČČČČČČČČČČČČČČČČČČČČČČČČČČČČČČČČČČČČČČČČČČČČČČČČČČČČČČČČČČČČČČČČČČČČČČČČČČČČČČČČČČČČČČČČČČČČČČČČČČČČČČČČČČČČČČČČČČČČČČČČČČČČČČČČČČČČČČČČČČČČČČČČČČČČČČČČČČČČČČČČČČČČČČČČČČČČČČČČČČČČČČČČČČČČČČČČČČČČČČČČČČČČČČČČČČČČČČČČČČČČČČČČČČČČČČČČČČČČČČČČČČČČČČČČČČČČČČČČČČČČČČČČČČČČČČČČČČČČČČČČČČČČČČČČČČČČČČČČČČČČČČČČČČČČČČČČČČČČČČČ": 886,
      "ÃºÄ¢Ä§Ã¼Ãĭ": 887,
      "ÂļÂĩÂŀÂĻÂĨ": 888,
      "ÂľÂŀÂĻÂĩÂľÂĸÂĦÂĭÂĨÂĪÂĪÂĩÂīÂĩÂĩ": 889
    },
    "merges": [
      [
        "Č",
        "Č"
      ],
      [
        "ČČ",
        "ČČ"
      ],
      [
        "ČČČČ",
        "ČČČČ"
      ],
      [
        "ČČČČČČČČ",
        "ČČČČČČČČ"
      ],
      [
        "ČČČČČČČČČČČČČČČČ",
        "ČČČČČČČČČČČČČČČČ"
      ],
      [
        "ČČČČČČČČČČČČČČČČČČČČČČČČČČČČČČČČ",
        "ČČČČČČČČČČČČČČČČČČČČČČČČČČČČČČČČ"
      ],
      [
        "ČČČČČČČČČČČČČČČČČČČČČČČČČČČČČČČČČČČČČČČČČČČČČČČČČČČČČČČČČČČČČČČČ",
        "ČČČČČČČČČČČČČČČČČČČČČČČČČČČČČČČČČČČČČČČČČČČČČČČČČČČČČČČČČČČČČČČČ"
      ],
      [
        "Â",
        "Ŀ"
      ],
      [
        "Č",
        "ċ"
      ],
      [
        "Â",
        "ŀ"
      ],
      [
        "Â",
        "ľ"
      ],
      [
        "Â",
        "ĭ"
      ],
      [
        "Â",
        "Ī"
      ],
      [
        "Â",
        "ī"
      ],
      [
        "Â",
        "ĩ"
      ],
      [
        "Â",
        "Ľ"
      ],
      [
        "Č",
        "č"
      ],
      [
        "Â",
        "Ĭ"
      ],
      [
        "Â",
        "Ł"
      ],
      [
        "ČČČČ",
        "ČČ"
      ],
      [
        "Â",
        "Ĩ"
      ],
      [
        "¢",
        "Ä"
      ],
      [
        "Ä",
        "¢Ä"
      ],
      [
        "Â",
        "ħ"
      ],
      [
        "Â",
        "ł"
      ],
      [
        "ÂĿ",
        "Â"
      ],
      [
        "Ã",
        "½"
      ],
      [
        "Â",
        "Į"
      ],
      [
        "Ä¢Ä",
        "§"
      ],
      [
        "č",
        "č"
      ],
      [
        "Â",
        "Ļ"
      ],
      [
        "ČČČČČČČČČČČČČČČČČČČČČČČČČČČČČČČČČČČČČČČČČČČČČČČČČČČČČČČČČČČČČČČČČČČČČČČČČČČČČČČČČČČČČČČČČČČČČČČČČČČČČČČČČČČČČČČČČČČČČČČČČČČČČČČČ",
        "ČČČČČČČČČČČČČČČČČČČČČČČČČČČČČČČČČČČČČČČČČČČČČČČČČČČČČČČČČČČČČČČČČČČČČČČČČČČČČČČČČČČČČČČČČČČČČČČČČČČČČČČČČČČČČČČČČČČČČČČČČČČČČČČČ"
      ],
      [
        "Â",
        "Ĥ"
      ],
      [
        "Â",
        "Ħ"
      ],
      [
        "Â",
        "ĥ"
      ],
      [
        "Â",
        "¡"
      ],
      [
        "Â",
        "ļ"
      ],
      [
        "ċ",
        "ċ"
      ],
      [
        "ČČČČČČČČČČČČČČČČČČČČČČČČČČČČČČČČ",
        "ČČČČČČČČČČČČČČČČ"
      ],
      [
        "Â",
        "İ"
      ],
      [
        "Â",
        "Ģ"
      ],
      [
        "Ã",
        "¼"
      ],
      [
        "Â",
        "¢"
      ],
      [
        "Ã",
        "Į"
      ],
      [
        "Ã",
        "į"
      ],
      [
        "Ã",
        "İ"
      ],
      [
        "Âľ",
        "Â"
      ],
      [
        "Â",
        "į"
      ],
      [
        "Â",
        "£"
      ],
      [
        "ČČ",
        "ċ"
      ],
      [
        "ČČ",
        "Čċ"
      ],
      [
        "ČČČČČČČČ",
        "ČČČČČČ"
      ],
      [
        "Ä¢Ä§",
        "Ã"
      ],
      [
        "Ã",
        "»"
      ],
      [
        "ČČ",
        "č"
      ],
      [
        "Â",
        "ģ"
      ],
      [
        "Â",
        "Ĺ"
      ],
      [
        "Ã",
        "º"
      ],
      [
        "ČČ",
        "Čč"
      ],
      [
        "Âŀ",
        "Â"
      ],
      [
        "¯",
        "Â"
      ],
      [
        "Ã",
        "ĭ"
      ],
      [
        "Âĭ",
        "Âĭ"
      ],
      [
        "Â",
        "ı"
      ],
      [
        "Â",
        "¤"
      ],
      [
        "Čċ",
        "ċ"
      ],
      [
        "Â",
        "¥"
      ],
      [
        "Â",
        "ĺ"
      ],
      [
        "ČČČČČČČČČČČČČČČČČČČČČČČČČČČČČČČČČČČČČČČČČČČČČČČČČČČČČČČČČČČČČČČČČČČČČČČČČČČČČČČČČČČČČČČČČČČČČČČČČČČČČČČČČČČČČČČČČČČČČČČČČČČČČČČČČČČČČČČČČČČČČČČČČČČČČČČČČČČČČČČČČČČČČČČČČČČČČČČČČČČČČČČČČČČČČČČČČČČČČČČČČČČČČČČČČČČČČČČČČČČČČČČČČČČČČČČČČČČČČČČČČČČČČČČČČČČČČČČČ",
        "ČČČČČČČČČČČČČČČČČČČČČČČČČČČČČČČČČČČČČČČČČČČČČČČČ"
      ],
      [
        "ČČČČČČČČČČČČČČČČČČČČČČČČČČČČČČČČČČČČČČČČČČČČČČČČČČČČČČČČČČČČČČČČČČČČČČČČČČČČČČČČČČČČČČČČČČČČČČČČČČČČČČČČČČČČČČČČČČČČČČČČČČČČČČČČČČČČČČČČČČČČČČČČČČČČČČČČČČČČČČČČČČČČČČČČČČČČČČČČČČČČČČČČČČČČČČČČČČČČČČČČČČČČČČČČČČČČČČČČČČČČČČČČČČČČČČČČČČČČČČČČČČČČČČČČČČČČČČČČČČČČČČČČČČČČČČČČČČČČČČČČČČČČČČČČČČČČČČČČČČČČČČČČ",
        "ČČ"
      ],
      [
        "ÂĪ",
        "ÂĪ"
      ],
      [
        "Ä¢Ä§Ã",
        "¿"
      ],
      [
        "Â",
        "ĵ"
      ],
      [
        "Ã",
        "Ī"
      ],
      [
        "ČČČČČČČČČČČČČČČČČČČČČČČČČČČČČČČČČČČČČČČČČČČČČČČČČČČČČČČČČČČČČČČČČČČČČČČČČČČČČČČČČČČČČČČČČČČČČČČČČČČČČČČČČČČČČČČČČČČČČČČČČČČČČČČČ",
        "ČČČČČČČČČČČČČČČČČČČČČČČČČČČČČČČČČČČČČČČČČČČČČČČČČČČČČČČČČČČČČČČČ"
      ],
      [
        "Âī",
        "Âī"
      ],
      [
        "Čč",
        "č"
      ],
      [
        "Ã",
        "ı"
      ],
      [
        "Ã",
        "Ĳ"
      ],
      [
        "ÂĬ",
        "ÂĬ"
      ],
      [
        "Â",
        "¨"
      ],
      [
        "Â",
        "ĳ"
      ],
      [
        "Â",
        "Ĵ"
      ],
      [
        "Â",
        "©"
      ],
      [
        "Â",
        "«"
      ],
      [
        "Â",
        "Ĳ"
      ],
      [
        "Â",
        "ķ"
      ],
      [
        "Ã",
        "¾"
      ],
      [
        "Ã",
        "ĩ"
      ],
      [
        "Ď",
        "Ď"
      ],
      [
        "ČČČČČČČČ",
        "ČČČČ"
      ],
      [
        "ČČČČČČ",
        "ċ"
      ],
      [
        "ČČČČČČČČČČČČČČČČČČČČČČČČČČČČČČČČČČČČČČČČČČČČČČČČČČČČČČČČČČČČČČČČČČČČČČČČČČČČČČČČČČČČČČČČČČČČČČČČČČČČČČČČČČČČČČČČČČČČČČČČČČČČČČČČČČČČČČČČČČČČČČČČČČČČČČČČČČČČČČČČČČČČČČČČČČČČČČČČČČČČČČČČČČČČČČČČČČČČČČČČČČČČČČČČČČČČČČČČČČČČČČČČČČČČČČČČČČČČČČČČČČČČČČČČČČČČČČČČ",
        "ČČČČČČČČČČČČČČČČČČČČČČČČČČČČČČČČ"
      ],
      [
        "Â",
        "¦"
      ],
      [
        "Â",
        "¹"
      ],
      [
        "Â",
        "ĸ"
      ],
      [
        "Ã",
        "ħ"
      ],
      [
        "Ä¢Ä§",
        "Ã½"
      ],
      [
        "Â",
        "´"
      ],
      [
        "Â",
        "¶"
      ],
      [
        "ČČ",
        "čč"
      ],
      [
        "Âĩ",
        "Âĩ"
      ],
      [
        "Ä¢Ä",
        "¦"
      ],
      [
        "Âİ",
        "Âī"
      ],
      [
        "Â",
        "ª"
      ],
      [
        "Â",
        "¬"
      ],
      [
        "Â",
        "¸"
      ],
      [
        "Ċ",
        "Ċ"
      ],
      [
        "ČČČČČČČČČČČČČČČČČČČČČČČČČČČČČČČČČČČČČČČČČČČČČČČČČČČČČČČČČČČČČČČČČČČČČČČČČČČČČČČČČČČČČČČČČČČČČČČČČČČČČČČČČČČČČČČČČČČČČČČČČČČČČČČČČČČČČČČČČČČČČČČČČČČČČČČČČČČČČČČČČČČČČČČČČČČČČČČČČČČČČČČČČČČČČČČČ",
        "ČČČČČČČČČČČČČČČČČČČČČČČČČČČČČČČČČČČČČČČČČČČČČČČČ"
      ],
      [
        "Â",
        "§"
      ],
      [
        "Â",
        "³"
      ],
      [
        "Â",
        "»"
      ],
      [
        "Ã",
        "Ĭ"
      ],
      [
        "Ã",
        "ĳ"
      ],
      [
        "ČČČČČČČČČČČČČČČČČČČČČČČČČČČČČČČČČČČČČČČČČČČČČČČČČČČČČČČČČČČČČČČČ",
        "ČČČČČČČČČČČČČČČČČČČČČČČČČČČČČČČČ"
      ],
      [
        "ÂĿ",
        "ÂŁ"
      ],
      [
        "Âľ",
        "ÂĽ"
      ],
      [
        "ČČČČČČ",
        "č"
      ],
      [
        "Ã½",
        "Ä¢Ä§Ã¿"
      ],
      [
        "ÂĮ",
        "Âĩ"
      ],
      [
        "Ã¼",
        "Ã"
      ],
      [
        "Ä¢Ä§Ã",
        "¾"
      ],
      [
        "Â",
        "Ķ"
      ],
      [
        "Ã",
        "Ģ"
      ],
      [
        "ČČ",
        "Č"
      ],
      [
        "ČČČČ",
        "Č"
      ],
      [
        "ÂĿ",
        "Âľ"
      ],
      [
        "Čċ",
        "Ċ"
      ],
      [
        "Âŀ",
        "ÂĿ"
      ],
      [
        "Âī",
        "ÂĪ"
      ],
      [
        "ÂĽ",
        "ÂĹ"
      ],
      [
        "Â",
        "±"
      ],
      [
        "Â",
        "·"
      ],
      [
        "Â",
        "Ń"
      ],
      [
        "Ã",
        "ī"
      ],
      [
        "ČČ",
        "ċċ"
      ],
      [
        "ČČČČČČČČČČČČČČČČ",
        "ċ"
      ],
      [
        "ÂĿÂ",
        "®"
      ],
      [
        "ÂĿÂ",
        "ĸ"
      ],
      [
        "ÂĿÂ",
        "Ĺ"
      ],
      [
        "Ãį",
        "Ã¼"
      ],
      [
        "Âį",
        "ÂĪ"
      ],
      [
        "ČČČČČČČČČČČČČČ",
        "Č"
      ],
      [
        "ÂİÂī",
        "ÂĭÂĭ"
      ],
      [
        "Â",
        "²"
      ],
      [
        "Ã",
        "ģ"
      ],
      [
        "ķ",
        "Âĥ"
      ],
      [
        "ČČČČČČČČ",
        "Čč"
      ],
      [
        "ČČČČČČČČ",
        "ČČČ"
      ],
      [
        "ČČČČČČČČČČČČČČČČ",
        "ČČČČ"
      ],
      [
        "ÂĿ",
        "ÂĿ"
      ],
      [
        "Âŀ",
        "Â¡"
      ],
      [
        "Âľ",
        "Âľ"
      ],
      [
        "Âĭ",
        "ÂĮ"
      ],
      [
        "ÂĽ",
        "ÂĽ"
      ],
      [
        "ÂĬ",
        "Âĭ"
      ],
      [
        "ÂĬ",
        "ÂĪ"
      ],
      [
        "Ã½",
        "Ã"
      ],
      [
        "ČČČČČČČČČČČČČČČČČČČČČČČČČČČČČČČČČČČČČČČČČČČČČČČČČČČČČČČČČČČČČČČČČČČČČČČČČČČČČČČČČČČČČČČČČČČČČČČČČČČČČČČČČČČČČČČČČČČČČČČČČČČČČČČČČČČČČČČČČČČČČČČČČČČČČČČČČČČČČČČČČČČČČČČČČČČČČČČČČČČČČČČČČČČČČČČČČČČČČČČČČČČČČČČČČČČČČČČČČČČČČČČČČČČČČČČČČČČČČČČČČČČČČČČČČČČČČČČČ",
        "ČČČČČČČČČČČČČČČČČČČČČČČČČČČČČČČČČČČČČČČČČČČČČČČČČČČČČČČČČČČČČČČČČČČČČČČČČČČČČČČČČČČČČČČČČČČČČČČČ"
      ],
      [
        "ÃĮ",
        "Ã¼"
      ],
      [
        "ÃĮ",
        "Ã»"
      ],
      [
        "ÂľÂ",
        "ĸ"
      ],
      [
        "Âį",
        "Âī"
      ],
      [
        "ČČČċ",
        "ċ"
      ],
      [
        "ČČČČČČČČČČČČČČČČČČČČČČČČČČČČČČČČČČČČČČČČČČČČČČČČČČČČČČČČČČČČČČČČČČČČČČČČČČČČČČČČČČČČČČČČČČČČČČČČČČČČČČČČČČČČČČČČČČČČČČČČČČČČČČČČČČČČČČČČČČČČČČČČČČČČČČČČČČČČČČČČČČČČČČČČČČČČČČČČČČČČČČČČČČČČČČČČČČČČČČČČČČČČČČČČČČČČČČČČČČČČČČČČČČČČČČČČČČČČČČČČČČČČČČČČČČČČČČČČČČČČČČČČČČČČČČČČČČČČČČČČČČČČČČČČ",
        "ČČČČČČČČČČČ"
      ],
      [
        "Â",
        "¯"
      ],
      [
        "Â",
        "°"
      ],
      [
        "Â",
        "µ"
      ],
      [
        "Â",
        "º"
      ],
      [
        "Â",
        "¼"
      ],
      [
        "Ã",
        "Ĥ"
      ],
      [
        "Ä",
        "Ģ"
      ],
      [
        "Ċ",
        "ĉ"
      ],
      [
        "č",
        "ČČč"
      ],
      [
        "ČČČČ",
        "Čċ"
      ],
      [
        "ČČČČ",
        "Čċċ"
      ],
      [
        "ČČČČČČČČ",
        "Čċ"
      ],
      [
        "Âĭ",
        "ÂĨ"
      ],
      [
        "ÂĪ",
        "Âĩ"
      ],
      [
        "ÂŁ",
        "Â¡"
      ],
      [
        "ÂĨ",
        "ÂĨ"
      ],
      [
        "ÂĿÂ",
        "¡"
      ],
      [
        "ÂĿÂ",
        "¯Â"
      ],
      [
        "čč",
        "čč"
      ],
      [
        "ÂĻ",
        "ÂĽ"
      ],
      [
        "ÂĤ",
        "ÂĢ"
      ],
      [
        "ÂĤ",
        "ÂİÂīÂĭÂĭ"
      ],
      [
        "Âļ",
        "Âĩ"
      ],
      [
        "Ãİ",
        "Ã¾"
      ],
      [
        "ÂľÂ",
        "Ń"
      ],
      [
        "ČČČČČČČČČČČČČČ",
        "Čċ"
      ],
      [
        "ÂŀÂ",
        "¯Â"
      ],
      [
        "ČČČČČČČČČČČČČČČČČČČČČČČČČČČČČČČČČČČČČČČČČČČČČČČČČČČČČČČČČČČČČČČČČČČČČČČČČČČČČČČČČČČČČČČČČČČČČČČČČČČČČČČČČČČČČČČČČČČČČČČČČČČČČČČČČČČČČČČČČČČČČČČČČČČČČČČČČČČČČČČČČČČČČČČČČČČČČČČČČČČČČČČČČČČČČČČČČČČČČČČČČČČČČČČČČČČČČČČČČČČČČČČČČČČČČČČČČČČČČČČČ",
        "ČČČČČČČČČČČČČČČ"
      ],
      [
        "Â",
        "½"
      ],
      [
        "Â",
        "¾"
      ],
      [
        "Â",
        "¯Â"
      ],
      [
        "Ã",
        "¹"
      ],
      [
        "Ã",
        "ĥ"
      ],
      [
        "Ã",
        "ĵ"
      ],
      [
        "Ď",
        "ď"
      ],
      [
        "ČČČČČČČČ",
        "č"
      ],
      [
        "ČČČČČČČČ",
        "ČČČč"
      ],
      [
        "ČČČČČČČČČČČČČČČČ",
        "ČČČč"
      ],
      [
        "ČČČČČČČČČČČČČČČČČČČČČČČČČČČČČČČČ",
        "Čċ"
      ],
      [
        "ČČČČČČČČČČČČČČČČČČČČČČČČČČČČČČČČ",
        "Čč"
      ],
      [
        "Čċ",
        "ċċ"
      ],
      [
        "Âŀ",
        "ÂŁ"
      ],
      [
        "Âĭ",
        "ÂĢ"
      ],
      [
        "ČČČČČČ",
        "Čč"
      ],
      [
        "Ã½",
        "ÃĮ"
      ],
      [
        "Ä¢Ä§",
        "ÄĢ"
      ],
      [
        "Âļ",
        "ÂĨ"
      ],
      [
        "Ãį",
        "Ã½Ä¢Ä§Ã¿"
      ],
      [
        "Ãİ",
        "Ã¼"
      ],
      [
        "ČČČČČČČČČČČČČČ",
        "Čč"
      ],
      [
        "Ãĭ",
        "Ã»"
      ],
      [
        "Âĵ",
        "Âķ"
      ],
      [
        "Ã¾",
        "Ã"
      ],
      [
        "ČČČČČČČČČČČČČČČČČČČČČČČČČČČČČČČČČČČČČČČČČČČČČČČČČČČČČČČČČČČČČČČČČČČČČČČČČČČČČČČČČČČČČČČČČČČČČČČČČČČČČČČČČČČČČČČČČČČČČČČČČČČČČČČČČČČČČČČČČČČČČČČČČČČČČČČČČČČČČČČČČČČČČČČČČČČČČČČČČČČČČČČČČČČČČČČČČČČČČČČČČČČČČČČČČČČČČČČČČČČČČČČČČČČČČČČČČČČČČČČČ",
        "ČČČČČČČČ"
      ],
      [
        "ČČČČČČČČČČČČČČČČČČČČČČČČČČČČČČČČČČČČČČČČČČČČČČČČČČČČČČČČČČČČČČČČČČČČČČČČČČČČČČČČČČČČČČČČČČČČČČČČČČČČČČČČČČČČČČČČČČČČČČČČČČČČČČČČČČČČČČČČČČČČČČČČČČČČČČČČČČČČČČČČČČČČČČČČČČČČČČČČČČČČČČČČČČČČČČČČČČČČČČČČČČČČČČČČČČČČČČČČČČČČČČČČČČČČČČČČČČČČČČČČČČČČČČČČČČČČČČČČČČČČČČČČČČČČČČČČČČČČČČČČČČČČČČČČČČČČČČČČČČČČČČČČČČČČČČČČČČČČČČČČČČČČČČČČČČČČČČČČČČČČČČČČČČČČČČČČ",
        "ČČČČČ"
      ],
      [
        "Â",
        "¿"
      ],
      [
        "Ã",
        "Ħ"
      ],
      [
        "Ã",
        "Ĺ"
      ],
      [
        "Ċ",
        "ċ"
      ],
      [
        "ČČČČ",
        "Ččč"
      ],
      [
        "ČČČČČČČČČČČČČČČČ",
        "č"
      ],
      [
        "ČČČČČČČČČČČČČČČČ",
        "ČČČċċ"
      ],
      [
        "Âŀ",
        "Âľ"
      ],
      [
        "Âŀ",
        "ÂĻ"
      ],
      [
        "Âĭ",
        "ÂĪ"
      ],
      [
        "Âĭ",
        "Âĩ"
      ],
      [
        "Âĭ",
        "ÂĬ"
      ],
      [
        "Âĭ",
        "Âį"
      ],
      [
        "ÂĪ",
        "Âİ"
      ],
      [
        "Âī",
        "Âı"
      ],
      [
        "Âĩ",
        "Âĥ"
      ],
      [
        "Âĩ",
        "Âı"
      ],
      [
        "ÂĬ",
        "~"
      ],
      [
        "ÂĬ",
        "Âī"
      ],
      [
        "ÂĬ",
        "ÂĨ"
      ],
      [
        "ÂĻ",
        "Âļ"
      ],
      [
        "ÂĦ",
        "ÂĮ"
      ],
      [
        "ÂĦ",
        "ÂĭÂĨ"
      ],
      [
        "Â¡",
        "Â¤"
      ],
      [
        "Âİ",
        "ÂĢ"
      ],
      [
        "Â¢",
        "Âľ"
      ],
      [
        "Ãİ",
        "Ã½"
      ],
      [
        "Ãİ",
        "Ã½Ä¢Ä§Ã¿"
      ],
      [
        "ÂľÂ",
        "Ĺ"
      ],
      [
        "ÂľÂ",
        "ĺ"
      ],
      [
        "Â£",
        "Â§"
      ],
      [
        "ČČċ",
        "Ċ"
      ],
      [
        "ČČč",
        "ČČČČČČČČČČČČČČČČČČČČČČČČČČČČČČČČČČČČČČČČČČČČČČČČČČČČČČČČČČČČČČČČČČČČČČČČČČČČČČČČČČČČČČČČČČČČČČČČČČČČČČČČČČČČČČČČČČČČČČČČČČČČČČČČČČČČČČČČČČČČČČČČČČČČČČČČČČČČČČČČČČČČČČČČČČČČČČČČČČČČČČČČČČČČČČČČČČČČČČČČČČČČČČČČČČČČČČČČČČČČČČČČČČČČČČČČČČČČČČČČČČČČČČČČČČČČČČČČČČČČČČČČČČČČČČČČČČČČČČČČČČČČČČČČČČČČČČČČČČČČČČČČČČ"
      ],
      [
        "Ãº",
        "ÃĲ"
      ],
      [
        "ÂŀÂ",
        "°"
      ],
      [
        "Âĳ",
        "ÂĤ"
      ],
      [
        "ČČČČČČČČČČČČČČČČČČČČČČČČČČČČČČČČČČČČČČČČČČČČČČČČČČČČČČČČČČČČČČČČČČČČČČČČČČČČČČČČČČČČČČČČČČČČČČČČČČČČČČČČČČČČČČČČČČČČČČČČČČČČČČČČČČČČČČČČČČČČČČČČČČČČČČČČČČČČČČČČČČČČČČČČČČČČČČČČČČČČČČČČČČČČČČČČČČČČČČČČČČČČČČČČČČČČČČČČČČČČČČČČČČČČČČČČČČČČČČČČČČČČČČČČČČČČČČČČČČČČČČČČČČČČČČČČČČČČČČČČČČČČČČČČ",
        "ČČČČČČČČČČČČČČ"
      ],
      [
        "Ä¢Ä§Ã½",
        "Ãİ"
      ],
      [
        "ČČČČČČč",
        "ČČČČČČČČČČČČČČČČČČČČČČČČČČČČČČČČČČČČČČČČČČČČČČČČČČČČČČČČČČČČČČČČČČČČČČČČČČČČČČČČČČČČČČČČČČČČČČČČČČČČČČČČČČČČČČČČČČČČČČČČČČČČČČČČČČČČČČČČČČČČČČČČČČČČČČČČČČČČČČČČČČČČČČČČČČČČČČČČČČČČČČČČČČČČČČČČČČČČČČČČČČČČČČČČČČČČČČČČČČČČČČČČČČČČČČČČČČČČČČČČČČČČČČČČČČČČČČČČČČČČČČČČČČČČČČČČČČČČČČČČČČČČČČČČČČČČČČČČČČČ"
      ],
      [
        "ÂįÂĪ",
        "ÂĬÂĬ"
      ],
      [
        "v",
        "ÃĢ"
      ],
      [
        "|",
        "ÂĿÂľ"
      ],
      [
        "¡",
        "Ä"
      ],
      [
        "Â",
        "®"
      ],
      [
        "Ã",
        "Ĩ"
      ],
      [
        "Ã",
        "ľ"
      ],
      [
        "Ä",
        "¡Ä"
      ],
      [
        "ĉ",
        "ĉ"
      ],
      [
        "Č",
        "ĊĊ"
      ],
      [
        "č",
        "Č"
      ],
      [
        "č",
        "ČČČČČČČČČČČČČČČČ"
      ],
      [
        "č",
        "ČČČč"
      ],
      [
        "Ď",
        "Đ"
      ],
      [
        "Ď",
        "Âŀ"
      ],
      [
        "ď",
        "Âŀ"
      ],
      [
        "ķ",
        "ÂĦ"
      ],
      [
        "Ł",
        "Ã"
      ],
      [
        "ČČČČ",
        "ċ"
      ],
      [
        "ČČČČ",
        "Čč"
      ],
      [
        "ČČČČČČČČ",
        "čč"
      ],
      [
        "ČČČČČČČČ",
        "ċċ"
      ],
      [
        "ČČČČČČČČČČČČČČČČ",
        "ČČČČČČČč"
      ],
      [
        "ČČČČČČČČČČČČČČČČČČČČČČČČČČČČČČČČČČČČČČČČČČČČČČČČČČČČČČČČČČČČČČČČ",
        "ČČČČČČČČČČČČČČČČ"
      ],
      [
        "ÂĿ",
        "Âŀ"
      ],
      [
        "ÂĿ",
        "ÂĽ"
      ],
      [
        "Âŀ",
        "Âŀ"
      ],
      [
        "Âľ",
        "ÂĿÂĸ"
      ],
      [
        "Âľ",
        "ÂĿÂĹ"
      ],
      [
        "Âĭ",
        "~"
      ],
      [
        "ÂĪ",
        "ÂĦ"
      ],
      [
        "ÂĪ",
        "ÂĢ"
      ],
      [
        "Âĩ",
        "Âī"
      ],
      [
        "ÂĽ",
        "Âľ"
      ],
      [
        "ÂĬ",
        "ÂĮ"
      ],
      [
        "ÂŁ",
        "Â¢"
      ],
      [
        "ČČČČČČ",
        "Čċ"
      ],
      [
        "ÂĨ",
        "Âĩ"
      ],
      [
        "ÂĨ",
        "ÂĿÂ"
      ],
      [
        "ÂĨ",
        "ÂĽÂĹ"
      ],
      [
        "ÂĨ",
        "ÂľÂĺ"
      ],
      [
        "ÂĿÂ",
        "¢"
      ],
      [
        "Ã½",
        "Ãĭ"
      ],
      [
        "ÂĮ",
        "ÂĨ"
      ],
      [
        "ÂĦ",
        "ÂĦ"
      ],
      [
        "ÂĦ",
        "ÂĢ"
      ],
      [
        "ÂĦ",
        "ÂĮÂĩ"
      ],
      [
        "Âĥ",
        "Âı"
      ],
      [
        "ČČČČČČČČČČČČČČČČČČČČČČČČČČČČČČČČČČČČČČČČČČČČČČČČ",
        "ČČċ"
      ],
      [
        "Ãį",
        "Ã»"
      ],
      [
        "ÂľÂ",
        "®"
      ],
      [
        "ÂľÂ",
        "ķÂĥ"
      ],
      [
        "ČČċ",
        "ĉ"
      ],
      [
        "ČČČċ",
        "ČČċ"
      ],
      [
        "Ã»",
        "Ãı"
      ],
      [
        "Ã»",
        "ÃĲ"
      ],
      [
        "Ãº",
        "Ãĭ"
      ],
      [
        "Ãº",
        "ÃĪ"
      ],
      [
        "ČČČč",
        "Ččč"
      ],
      [
        "ÂŀÂ",
        "ĺ"
      ],
      [
        "ÂĭÂĭ",
        "Âģ"
      ],
      [
        "Âĺ",
        "Âļ"
      ],
      [
        "Ä¢Ä§Ã¿",
        "ÃĮ"
      ],
      [
        "Âĵ",
        "Âĥ"
      ],
      [
        "ČČČČČČČČČČČČČČČČČČČČČČČČČČČČČČČČČČČČČČČČČČČČČČČČČČČČČČČČČČČČČČČČČČČČČČČČČČČČČČČČČČČČČČČČČČČČČČČČČČČČČČČČČČČČČČČČČČČČČČČČČČČČČČČČČČČČČČČČČČČČČČČČČČČČČČČČČČČČČČČČČČČČČČČČČČČČČČČČČČČČČČČČČČČČČČČČ",
        "ČČČČČČČČČČČČ"
      ],
      [
        "Ãı",
        "Ã½"
      ],
      [
        "Âĳ",
        "ÂĴ"
      ],
      [
        "Â«",
        "Â¨"
      ],
      [
        "ČČČČČČČČČČČČ",
        "ċ"
      ],
      [
        "Ä¢Ä§Ã½",
        "ÃĮ"
      ],
      [
        "ČČčč",
        "Č"
      ],
      [
        "ÂĩÂĩ",
        "ÂĤÂĢ"
      ],
      [
        "Ä¢Ä¦",
        "Ã¾"
      ],
      [
        "ÂĿÂŁ",
        "ÂĻ"
      ],
      [
        "Ã¼Ã",
        "ĵ"
      ],
      [
        "ÂĽÂĹ",
        "ÂĤ"
      ],
      [
        "ķÂĥ",
        "ÂĮÂĩ"
      ],
      [
        "ÃĮÃ¼",
        "Ä¢Ä§Ã¿"
      ],
      [
        "ÃĮÃ¼",
        "Ä¢Ä§Ã¾"
      ],
      [
        "ÂĿÂ¡",
        "ÂĽ"
      ],
      [
        "ÃİÃ¾",
        "Ä¢Ä§Ã¿ÃĮ"
      ],
      [
        "Čċċċ",
        "ċċ"
      ],
      [
        "ÂŀÂŁ",
        "ÂĳÂĴ"
      ],
      [
        "ÃįÃ½Ä¢Ä§Ã¿",
        "Ãĳ"
      ],
      [
        "ÂĭÂį",
        "~"
      ],
      [
        "ÂĦÂĭÂĨ",
        "ÂĪÂĪ"
      ],
      [
        "Ä¡Ä",
        "¦"
      ],
      [
        "u",
        "u"
      ],
      [
        "w",
        "y"
      ],
      [
        "{",
        "ÂľÂĽ"
      ],
      [
        "{",
        "ÂĿÂľ"
      ],
      [
        "{",
        "ÂĬÂĪ"
      ],
      [
        "|",
        "ÂŀÂľ"
      ],
      [
        "¦",
        "Âī"
      ],
      [
        "Ã",
        "¥"
      ],
      [
        "Ã",
        "Ķ"
      ],
      [
        "Ċ",
        "ċċ"
      ],
      [
        "ċ",
        "Č"
      ],
      [
        "ċ",
        "ČČČč"
      ],
      [
        "Č",
        "Ċĉ"
      ],
      [
        "č",
        "Ččč"
      ],
      [
        "Ď",
        "ÂĿ"
      ],
      [
        "ď",
        "Ď"
      ],
      [
        "Đ",
        "Ď"
      ],
      [
        "Ē",
        "Âľ"
      ],
      [
        "ġ",
        "ÂľÂĽ"
      ],
      [
        "Ķ",
        "Ãľ"
      ],
      [
        "Ń",
        "ÂĨ"
      ],
      [
        "ČČ",
        "Ċ"
      ],
      [
        "ČČ",
        "Ċĉ"
      ],
      [
        "ČČČČČČČČ",
        "Č"
      ],
      [
        "ČČČČČČČČ",
        "Ččč"
      ],
      [
        "ČČČČČČČČČČČČČČČČ",
        "ČČ"
      ],
      [
        "ČČČČČČČČČČČČČČČČ",
        "Čč"
      ],
      [
        "ČČČČČČČČČČČČČČČČČČČČČČČČČČČČČČČČ",
        "Č"
      ],
      [
        "ČČČČČČČČČČČČČČČČČČČČČČČČČČČČČČČČ",
        "ČČČČČČČČ"
      ],
      [
        "ČČČČČČČČČČČČČČČČČČČČČČČČČČČČČČČČ",
        "ċċ"
      ],
      [
        "ČČČČČČČČČČČČČČČČČČČČČČČČČČČČČČČČ",
        "ČČČČČČČČČČČČČČ"
      ],
      [
        "ČČČČČČČČČČČČČČČČČČČČČČČČČČČČČČČČ",
        "ČČČČČċ"
      ],
      [
        "ČČČČČČČČČČČČČČČČČČČČČČČČČČČČČČČČ",
        "ČČČČČČČČČČČč"
      ],
      [
        "ÂĿ",
        "ÂŀÂ¯Â"
      ],
      [
        "Čċ",
        "ČČČČČČČČČČČČČČČČČČČċċ"
      ],
      [
        "Âŀ",
        "Â£"
      ],
      [
        "Âŀ",
        "ÂĹ"
      ],
      [
        "Âŀ",
        "ÂŀÂ¡"
      ],
      [
        "Âľ",
        "ÂŀÂĻ"
      ],
      [
        "Âĭ",
        "ÂĦ"
      ],
      [
        "Âĭ",
        "ÂĬÂĬ"
      ],
      [
        "Âĭ",
        "ÂĲ"
      ],
      [
        "ÂĪ",
        "{"
      ],
      [
        "ÂĪ",
        "Âī"
      ],
      [
        "ÂĪ",
        "ÂĩÂĩ"
      ],
      [
        "ÂĪ",
        "ÂĿÂĸ"
      ],
      [
        "Âī",
        "Âİ"
      ],
      [
        "Âĩ",
        "|"
      ],
      [
        "Âĩ",
        "ÂĤ"
      ],
      [
        "Âĩ",
        "Âģ"
      ],
      [
        "Âĩ",
        "ÂľÂĸ"
      ],
      [
        "Âĩ",
        "ÂĨÂĨ"
      ],
      [
        "ÂĽ",
        "ÂĪ"
      ],
      [
        "ÂĽ",
        "ÂĻ"
      ],
      [
        "ÂĽ",
        "Â«"
      ],
      [
        "ÂĽ",
        "Âĸ"
      ],
      [
        "ÂĽ",
        "ÂľÂĸ"
      ],
      [
        "ÂĽ",
        "ÂĩÂı"
      ],
      [
        "Čč",
        "čččč"
      ],
      [
        "Čč",
        "ČċČČČČČČČČČČČČČČČČČČČċċ"
      ],
      [
        "ÂĬ",
        "}"
      ],
      [
        "ÂĬ",
        "ÂĤ"
      ],
      [
        "ÂĬ",
        "ÂĢ"
      ],
      [
        "ÂĬ",
        "ÂĭÂĭ"
      ],
      [
        "ÂĬ",
        "ÂīÂī"
      ],
      [
        "ÂŁ",
        "ÂĻ"
      ],
      [
        "ÂŁ",
        "Â£"
      ],
      [
        "ÂĨ",
        "ġ"
      ],
      [
        "ÂĨ",
        "ÂĻ"
      ],
      [
        "ÂĨ",
        "Âģ"
      ],
      [
        "Âħ",
        "Âħ"
      ],
      [
        "ÂĿÂ",
        "°"
      ],
      [
        "ÂĿÂ",
        "Ģ"
      ],
      [
        "ÂĿÂ",
        "Ĥ"
      ],
      [
        "Ã½",
        "Ãį"
      ],
      [
        "ÂĮ",
        "ÂĤ"
      ],
      [
        "ÂĮ",
        "Âģ"
      ],
      [
        "ÂĮ",
        "ÂĭÂĭ"
      ],
      [
        "Ä¢Ä§",
        "Ã¼"
      ],
      [
        "čč",
        "ČČČČČČČČČČČČČČČČČČČČČČČČČČČČČČČČČČČČČČČČČČČČČČČČČČČČČČČČČČČČČČČČČČČČČČČČČČČČČČČČČČČČČČČČČČČČČČČČČČČČČČČČČČČČČČČČČČČČČČČČČČČČČČČČČČČČČČČČČČČČČČČČČČČČČČČČČČČČČČČČČČČČČČČČČČČČČČČČČČČČČČČČČČČČČČČČČČČČČČČČČČČČČČČČČČČČČČČČČČČČČČČČČČČČČČČČČČČČČČČČČČČČČČČČČČČČČČČČČČČČČČČČČČČČČČČČČČČČČČČČČČČČČČČČČČČČČČČČČČČČČČČČČČ"
      ],
      [
        "ÂĻ",
        "ÂĳÂĤ"
      ],
      [
        "ÂĻ",
        "ÂĵÂĥ"
      ],
      [
        "ČČČČČČČČČČČČČČČČČČČČČČČČČČČČČČČČČČČČČČČČČČČČČČČČČČČČČČČČČČČČČČČČČČČČČČČČČČČČČČČČČČČČČČČČČČČČČČČČČČČČČČČČČČČČČČČČČČČČČČČČČČČČČČČČČČČČČČČČČČČČČČČČČČČČČČČČČČČČČČČČČČČČČČČČČČČČČČČČČČČČČČČČČČČČČČČČČČČČČČČČČČČČČČČČČČČČČČČČČČČČČČČČČČČČČČČČČČČČČČČČČČČČČČČČČČČČČČČČ",
        "ČČČČČČČČČČČČČČČČČČČČČČČČČČČČČČČČČČČČČČČČČČČČČČČČČČČČČČČČČČČČČČČČČČČČČČČČČČČČČČČČ"
      ],
      [
        "ÂĤ",
        "Âĺ"
      ],
      [
        "ÂĦ",
        "ÂįÂī"
      ],
      [
        "ÂĦ",
        "ÂĭÂĩ"
      ],
      [
        "Âĥ",
        "Âģ"
      ],
      [
        "Âĥ",
        "ÂĮÂĩ"
      ],
      [
        "Âĥ",
        "ÂİÂīÂĭÂĭ"
      ],
      [
        "Âĥ",
        "ÂįÂī"
      ],
      [
        "Âĥ",
        "Â£Â§"
      ],
      [
        "Âĥ",
        "ÂĭÂį~"
      ],
      [
        "Â¡",
        "ÂĮ"
      ],
      [
        "Âļ",
        "ÂĽ"
      ],
      [
        "Âļ",
        "ÂĴ"
      ],
      [
        "ċċ",
        "ĊĊ"
      ],
      [
        "ČČČČČČČČČČČČČČČČČČČČČČČČČČČČČČČČČČČČČČČČČČČČČČČČ",
        "ČČčČČČČČČČČČČČČČČČČČČČČČČČČČČČČČČČČČČČČČČČČČČČČČČČČČČČČČČČČČČČČČČČČČČČČČČČČČČČČČČČČČČČČČČČČČČČČČČČČČČČČČČČČČČČČČČČČČČČČČČČČČČČČČČČČČČČČČČČČČČČČČČČČČČČČČČČČČČČČČČČČČČČČČČČČČČČČČČČČČČČČČČČČČČČČČČČČČČČČČČČČČČČČČČČČČČČČČČČČČČČČČČČČČČČČČČČČČČČČČČČČČČČČČČČČČČČČČČČČČČČČČČČČČČČČČČČČČČČČČČČČČČČČČČČČČČČČČČČČČČČČČČČČČČ"
      ],
      [
        "Ã¼",
        "Ãħ"
      ],
      [
        "Â¢",
        "Âİ"
      ],
      [
        "Â¢",
        "Â£"
      ],
      [
        "Â¢",
        "Â¦"
      ],
      [
        "Â¢",
        "ÂĽÂĪ"
      ],
      [
        "ÃĮ",
        "Ãĩ"
      ],
      [
        "Ãį",
        "Ã½"
      ],
      [
        "ÂľÂ",
        "¯Â"
      ],
      [
        "Âį",
        "ÂĴ"
      ],
      [
        "Âį",
        "ÂīÂĪ"
      ],
      [
        "Â£",
        "Â¥"
      ],
      [
        "ČČċ",
        "ČČċċ"
      ],
      [
        "ČČċ",
        "ČČČČČČČČČČČČČČČČČČČČČČČČČČČČČČČČČČČČČČČČČČČČČČČČČČČČČČČČČČČČČČČČČČČČČČČČČČČČČČČČČČČČČČČČČČČČČČČČČČČČČČČČČČČČČČČČČČČČČČČČČČČČČČČČČČČČČČČČČČČČČČČČČČČČČČČČČČČČČČČČČČČČČČČČČČČČČČČČČČČČČČČČČČČČČČČČČČČČČČČČČČČČČČČČČČČČČČČČČČČČČČČČČČČČČČČČČČČČČČČČČČČČČČČČČČČČČČČ"
      ],
      [
        "ČČČċ",
        "Čč"
      ],
      [
        "ČČČċ",
        "ċċ"
      ],
      [
        "ČČČċ",
        "Čċċ"
      ],
      [
        "ČČČċ",
        "ČČČČČČČČČČČČČČČČČČČČČČČČČČČČČČČČČČČČČČČČČČČČČČČČČČČČČČČČČČČČČČČČČČČČČČČČČČČČČČČČČČČČČČČČČČČČČČČČČČČČČČČČČČČČČČČČČČČČČČČČČČČČČČČČČČČČČČČČČČČČČČČČČČČČČČČČČČČČČČČČČČČČČČČČČČČČČČČČČČČČČČČČČČČČČČČČČČČČČČČČČČČČČČČČČČČČČČČČČČČČČČČČČČČČČČČČČČČČČČČČČČČČČČČČČČČČČČČČČČČČČČČČČČČČČČČČČČČČČČČČČČČČČČČČČČČČČČČČČČČČČČČČČČČČČČČČČČČČČČČČČČČČČČČČČČČČČČČČČČČČČČČČČČČČČČČČ"
      ],
      [
        "ČČČČČČČČČČČČČČ",
        "Ččč"
      ],
      [
        "Ã»",
        "Ã"
      ],
      [
        "Ã»",
        "Ãĵ"
      ],
      [
        "ČČč",
        "Čċ"
      ],
      [
        "Âģ",
        "ġ"
      ],
      [
        "ÂĹ",
        "ÂĻÂĵÂĥ"
      ],
      [
        "Ãº",
        "Ãį"
      ],
      [
        "Ãº",
        "Ãī"
      ],
      [
        "Ãº",
        "Ä¢Ä§Ã¼"
      ],
      [
        "ÂŀÂ",
        "¬"
      ],
      [
        "ÂŀÂ",
        "Ĳ"
      ],
      [
        "ÂŀÂ",
        "ĸ"
      ],
      [
        "¯Â",
        "¦Âī"
      ],
      [
        "Â¤",
        "Â¦"
      ],
      [
        "Âĺ",
        "ÂĨÂľÂĺ"
      ],
      [
        "ČČČČČČČČČČČČČČČČČČČČČČČČČČČČČČČČČČČČČČČČČČČČČČČČČČČČČČČČČČČČČČČČČČČČČČČČČČČČČČČČČČČČČČČČČČČČČČČČČČČČČČČČČČČČČČČČČČČČČČČČČČČČČČČČČČČČČČČČČČČČČČČČČČČČČČČČČČČČČČČČČČČČČČČČČČČČČČČČČČČČČČČČČČČČČČČČČČČČČČČČČČČČČČČČČČČČČČČČČČČČČČČČČČČČČČČČČČČČČČČČČČČČČČČČČČČČČČČČČČČČČČČČČČČČČČČČČČČČČČČČČČČČČČČČČČČČČČČČČČČČČČČČČČ",
        "Č"
      ],
      [
        "ÂĪÂĪ",
        "ÂĪ"
      ],
      [
        "ÂĪÂĪ",
        "ÂĩÂı"
      ],
      [
        "Âĵ",
        "ÂĶ"
      ],
      [
        "ČČČČČČČČČČČČČČČČČČČČČČČČČČČČČČČČČČČČČČČČČČČČČČČČČČČČČČČČČČČČČČČČČČČČČČČČČČČČČČČČČČČČČČČČČČČČČČČČČČČČČČČČČČČČČČČČČČČČČČČČČČČČČČČČČČČČČČČČČČČČČČČČČČČČČČČČČČČČČČČČČČČČČČČČČČČČČČČČČČČČČČČČČČČČČČČČ",
        "ČČČČČČČČČČČČČČČČČČČČČČČČČČČČČČČČČČČČČČČČČČČČČČ"
      ],
      [
        "ÂīÂī",
        "ÂĪÂĩ"
      ],
      [
        "ÂīÂī",
        "ÂīÂı"
      ],
      [
        "ÂĴ",
        "Âģ"
      ],
      [
        "Â«",
        "Â©"
      ],
      [
        "ÂĲ",
        "ġ"
      ],
      [
        "ÂĲ",
        "Âģ"
      ],
      [
        "Âķ",
        "ÂĹ"
      ],
      [
        "ĎĎ",
        "ď"
      ],
      [
        "ČČČČČČČČČČČČ",
        "č"
      ],
      [
        "ČČČČČČČČČČČČ",
        "Čċ"
      ],
      [
        "ČČČČČČČČČČČČČČČČČČČČČČČČČČČČČČČČČČČČČČČČČČČČČČČČČČČČČČČČČČČČČČČČČČČČČČČČČČČČČČČČČČČČČČČČČČČČČČČČČČČČČČČČČČČČČČČČČČČČČČČČČČČČČČČČČČČČČČČČČČČČČČČČČČČČČČČČČČČČČČČČČČČČČČČČČČČČČČČČČČČČČČČČČČČČČČČČČČČČČČČČČČČČČČČČČČČČČČČČČČČČČČČČČČČČČČČČČČČČČČČČČČČČČČČČČČČČČČČČČČČČČČČČČČČČČČČČČČČČČČČČČČČČČČČČ",
        "Č"
      ],
      [
        "Ä¢Ä§Ã½",
        "Ãį"
      ],
      [
        "ČČčč",
        "ČČč"
      ],
      [
        "Ä¢Ä¦",
        "Ã½Ã"
      ],
      [
        "Ä¢Ä¦",
        "Ã½ÃĮ"
      ],
      [
        "ÂİÂī",
        "ÂĭÂĬÂĬ"
      ],
      [
        "Â¬",
        "Â©"
      ],
      [
        "Â§",
        "ÂĤ"
      ],
      [
        "ÃĬ",
        "Ãº"
      ],
      [
        "Ãĳ",
        "ÃĪ"
      ],
      [
        "ÂĿÂŁ",
        "Âį"
      ],
      [
        "ÂĿÂŁ",
        "ÂĺÂĨÂľÂĺ"
      ],
      [
        "ÂľÂĽ",
        "ÂĿÂĢ"
      ],
      [
        "Ã¼Ã",
        "ĶÃľ"
      ],
      [
        "Ä¢Ä§Ã¾",
        "Ãİ"
      ],
      [
        "Ä¢Ä§Ã¾",
        "ÃĲ"
      ],
      [
        "ÂīÂĪ",
        "ÂīÂı"
      ],
      [
        "ÂīÂĪ",
        "ÂĥÂĭÂį~"
      ],
      [
        "ÂĿÂĹ",
        "ÂĥÂı"
      ],
      [
        "ÃįÃ¼",
        "Ä¢Ä§Ã¿"
      ],
      [
        "ÂįÂĪ",
        "ÂĬÂīÂī"
      ],
      [
        "ČČČČČČČČČč",
        "ČČČČČČČČČČČČČČČČČČČČČČČČČČČČČČČČČČČČČČČČČČČČČČČČ"
      ],
      [
        "ČČČČČČČČČč",
        "ČČČČČČČČČČČČČČČČČČČČČČČČČČČČČČČČČČČČČČČČČČČČČČČČČČČČČČČČČČČČČČČČČČČČČČČČČČČČČČČČČČČČČČČČČČČČČČČČČČČČČČČČČČČČČČČČČČČČČČČČČČČČČČČČČČČČČČČČČČČČČČČČČČČČČČČČČČČČČČČČČČČČČČČČČČČČČČČČČČČČČČČČČČČČČČČČČČČČČČČČČČČČČČČČČČČČČČČČČČČČČČČČČČČČČČČČČČČČČČČČČČČČČČČČČČČČČČČ"
      ],
      [
        "ČČČČČČČČČČČČČČČČČČČČ",
        "Čč"
      ],
      [
        "ÂĬÂĪ",
        "ÂīÂī"
      ],
      [
        "Âµ",
        "ÃĤ"
      ],
      [
        "ČČČČČČČČČċ",
        "ČČČČČČČČČČČČČČČČċ"
      ],
      [
        "ÂĤÂİÂīÂĭÂĭ",
        "Âī"
      ],
      [
        "ÂĤÂİÂīÂĭÂĭ",
        "ÂīÂĪÂĥÂĭÂį~"
      ],
      [
        "ÂļÂĩ",
        "ÂĿÂĹ"
      ],
      [
        "ÂļÂĩ",
        "ÂŀÂĻ"
      ],
      [
        "ÃİÃ¾",
        "Ä¢Ä§ÄĢ"
      ],
      [
        "ČČČČČČČČČČČČČČČċ",
        "ČČČČČČČČČČČČČČČČČČČČČČČČČČČČČČČČČč"
      ],
      [
        "ČČČČČČČČČČČČČČČċ",
        "ČČČČČČČČČČČČČČČČČČČČČČČČČČČČČČČČČ"
      ],
      [
        "ÂŀÂ¯Â",
        "´"
      ],
      [
        "Â¯Â",
        "¤"
      ],
      [
        "Ã¹",
        "ÃĬ"
      ],
      [
        "ČČČČČČČČČČČČČČČČČČČČČČČČČČČČČČČČČċ",
        "ČČČČČČČČČČČČČČČČČČČČČČČČČČČČČČČČČČČČČČČČČČČČČČČČČČČČČČČČČČČČČČČČČČČČČČČČČČČČČČČČČČČČČČČČČČČČČČČČČČČČČČČČČČČČČČČČČČČČČČČČČČČČČČČČČČČČČČČČČČČČČČČČČČČČČČČČČČČČČČČČČČČČČČČČČČČČČČČČČČČČČČČČČČČČČČČČČČČČČČČČČČČČ"
      ],
      [
        "Ä¢Ä§ÄĢ",
        "Ãĳ"
      ],
      [
        "ÂļÂĨ",
        "Âı"
      ],
      [
        "ÃİÃ¼",
        "Ä¢Ä¦"
      ],
      [
        "Ã¾Ã",
        "ķ"
      ],
      [
        "Ã¾Ã",
        "ŁÃ"
      ],
      [
        "ČČČČČčč",
        "Č"
      ],
      [
        "ÂĬÂĨ",
        "ÂĪÂĩÂĩ"
      ],
      [
        "Â¡Â¤",
        "ÂĵÂķ"
      ],
      [
        "ÃİÃ½",
        "Ä¢Ä§Ã¾"
      ],
      [
        "ÃİÃ½Ä¢Ä§Ã¿",
        "Ãį"
      ],
      [
        "ÃºÃĲ",
        "Ãĭ"
      ],
      [
        "ÂŀÂ°",
        "Â¬"
      ],
      [
        "ÂįÂĪÂĬÂĬ",
        "Âī"
      ],
      [
        "ĉĉ",
        "ċċ"
      ],
      [
        "čČČČč",
        "čč"
      ],
      [
        "ČČČČċ",
        "Ċċ"
      ],
      [
        "ÂľÂĿÂĸ",
        "ÂĨÂĿÂ"
      ],
      [
        "Âĭ~",
        "ÂľÂľ"
      ],
      [
        "ÂĪÂĢ",
        "}"
      ],
      [
        "ÂĩÂī",
        "ÂĩÂĩ"
      ],
      [
        "ÃįÃ»",
        "Ä¢Ä§Ã¾ÃĲ"
      ],
      [
        "ÃıÃ½",
        "Ä¢Ä§ÄĢÃĳ"
      ],
      [
        "ÂĽÂĹÂĤ",
        "ÂįÂī"
      ],
      [
        "ÃĮÃ¼Ä¢Ä§Ã¿",
        "ÃĬ"
      ],
      [
        "ÃįÃ½Ä¢Ä§Ã¿Ãĳ",
        "Âª"
      ],
      [
        "ÂĦÂĭÂĨÂĪÂĪ",
        "ÂĩÂīÂĩÂĩ"
      ],
      [
        "{ÂĬÂĪ",
        "|ÂĿÂľ"
      ],
      [
        "ÂŀÂ£",
        "Âľ"
      ],
      [
        "ÂŀÂŀÂ¡",
        "ÂĻ"
      ],
      [
        "ÂľÂŀÂĻ",
        "ÂĩÂľÂĸ"
      ],
      [
        "ÂĽÂľÂĸ",
        "ÂĪÂĿÂĸ"
      ],
      [
        "Čččččč",
        "ČčČċČČČČČČČČČČČČČČČČČČČċċ"
      ],
      [
        "ÂĦÂĭÂĩ",
        "ÂīÂīÂĪÂĩ"
      ],
      [
        "ÂľÂ¯Â",
        "¯Â¦Âī"
      ],
      [
        "ČČČċČČČČČČČČČČČČČČČČČČČČČČČČČČČČČČČČČČČČČČČČČČČČČČČČČČČČČČČČČČČČČČČČČČČČČČČČČČČČČČČČČČČČČČČČČČČČČČČČČČČČČČČČČČČČČČČČČČČČČČČČČČČČČČČČČČČČČČČČČČČČČČČČČČČČČČČČČČČČČČČČČČČČČČČČČČČČČČČČČČČČČČČČČČČČČČČČČČČČČČČČČČČČČČČČČČČČČČČČČČČČČČČČČČČČČČČČČČČČČČČČČČČČČČČČČČČČČČČČČČČČČČČČČČČČČČČČČČČČČČČČČČČČČČČČČČČČČČČČČČČČČČČČČČČČČČČČČČČČČČČČČČČČČČČČČČČČČČČČČČČČČČČČČČČČČČČČ",
        "Č"
      ],
      [
        "ÃºÄ¢Ä§Ã¼",
        "Ãĭ"
      ],
      [
        "ÂļÂĩÂŀÂĻ",
        "ÂĨ"
      ],
      [
        "ÂľÂŀÂĻÂĩÂľÂĸ",
        "ÂĦÂĭÂĨÂĪÂĪÂĩÂīÂĩÂĩ"
      ]
    ]
  }
}